{"</s>": 0, "<unk>": 1, ".": 2, ",": 3, "'": 4, "?": 5, "\u2581-": 6, "\u2581I": 7, "s": 8, "\u2581the": 9, "\u2581you": 10, "\u2581to": 11, "!": 12, "\u2581a": 13, "\u2581bir": 14, "t": 15, "\u2581of": 16, "...": 17, "\u2581and": 18, "\u2581it": 19, "\u2581that": 20, "\u2581in": 21, "m": 22, "\u2581is": 23, "\u2581You": 24, "\u2581ve": 25, "\u2581me": 26, "\u2581for": 27, "n": 28, "\u2581\"": 29, "\u2581on": 30, "\u2581have": 31, "\u2581be": 32, "re": 33, "\u2581this": 34, "\u2581was": 35, "\u2581your": 36, "\u2581i\u00e7in": 37, "-": 38, "\u2581not": 39, "\u2581we": 40, "\u2581de": 41, "\u2581Bu": 42, "\u2581bu": 43, "\u2581my": 44, "\u2581know": 45, "\u2581with": 46, "a": 47, "\u2581are": 48, "\u2581do": 49, "\u2581It": 50, "\u2581mi": 51, "\u2581What": 52, "\u2581he": 53, "\u2581can": 54, "\u2581what": 55, "e": 56, "\u2581her": 57, "\u2581don": 58, "\u2581We": 59, "\u2581var": 60, "\u2581And": 61, "\u2581da": 62, "\u2581ne": 63, "ll": 64, "\u2581all": 65, "\u2581just": 66, "\u2581He": 67, "\u2581m\u0131": 68, "\u2581like": 69, "\u2581here": 70, "\u2581The": 71, "\u2581de\u011fil": 72, "\u2581they": 73, "\u2581out": 74, "\u2581O": 75, "\u2581him": 76, "\u2581Evet": 77, "\u2581No": 78, "\u2581Ne": 79, "\u2581about": 80, "\u2581\u00e7ok": 81, "\u2581at": 82, "\u2581\u015fey": 83, "\u2581up": 84, "d": 85, "i": 86, "\u2581get": 87, "\u2581right": 88, "\u2581will": 89, "\u2581there": 90, "lar": 91, "ve": 92, "\u2581go": 93, "\u2581o": 94, "\u2581Oh": 95, "\u2581Bir": 96, "\u2581so": 97, "\u2581That": 98, "\u2581one": 99, "\u2581daha": 100, "\u2581but": 101, ":": 102, "\u2581them": 103, "\u2581Ben": 104, "\u2581from": 105, "k": 106, "\u2581kadar": 107, "\u2581no": 108, "\u2581an": 109, "ler": 110, "\u2581ki": 111, "in": 112, "\u2581(": 113, "\u2581as": 114, "\u2581got": 115, "\u2581Hay\u0131r": 116, "\u2581want": 117, "\u2581think": 118, "\u2581gibi": 119, "\u2581his": 120, ")": 121, "\u2581if": 122, "\u2581ama": 123, "\u2581iyi": 124, "\u2581": 125, "\u2581Yeah": 126, "da": 127, "\u2581who": 128, "\u2581But": 129, "\u2581So": 130, "\u2581yok": 131, "ing": 132, "\u2581she": 133, ".\"": 134, "\u2581see": 135, "\u2581ben": 136, "\u2581now": 137, "\u2581Well": 138, "\u2581us": 139, "ya": 140, "\u2581Ama": 141, "\"": 142, "\u2581were": 143, "\u2581Hey": 144, "\u2581going": 145, "\u2581A": 146, "\u2581Allah": 147, "\u2581time": 148, "\u2581back": 149, "\u2581zaman": 150, "\u2581did": 151, "\u2581been": 152, "\u2581gonna": 153, "\u2581had": 154, "\u2581would": 155, "\u2581good": 156, "\u2581or": 157, "\u0131n": 158, "\u2581This": 159, "\u2581They": 160, "\u2581Ve": 161, "de": 162, "\u2581when": 163, "n\u0131n": 164, "\u2581oldu\u011funu": 165, "la": 166, "dan": 167, "\u2581has": 168, "\u2581She": 169, "y": 170, "\u2581by": 171, "\u2581say": 172, ";": 173, "\u0131": 174, "\u2581Tamam": 175, "\u2581our": 176, "le": 177, "\u2581bana": 178, "\u2581need": 179, "\u2581come": 180, "\u2581some": 181, "\u2581How": 182, "\u2581sen": 183, "\u2581Sen": 184, "\u2581onu": 185, "leri": 186, "nin": 187, "\u2581could": 188, "\u2581said": 189, "\u2581Yes": 190, "\u2581take": 191, "\u2581man": 192, "\u2581their": 193, "\u2581didn": 194, "ed": 195, "\u2581way": 196, "\u2581down": 197, "\u2581how": 198, "lar\u0131": 199, "\u2581mu": 200, "den": 201, "\u2581benim": 202, "\u2581'": 203, "na": 204, "\u2581God": 205, "\u2581people": 206, "\u2581beni": 207, "\u2581sonra": 208, "\u2581more": 209, "\u2581\u00c7ok": 210, "\u2581tell": 211, "\u2581Why": 212, "\u2581then": 213, "\u2581If": 214, "\u2581Okay": 215, "\u2581something": 216, "\u2581Tom": 217, "\u2581really": 218, "\u2581make": 219, "\u2581There": 220, "\u2581ya": 221, "\u2581en": 222, "\u2581over": 223, "\u2581\u00f6nce": 224, "\u2581olarak": 225, "\u2581Come": 226, "ye": 227, "\u2581Do": 228, "\u2581too": 229, "\u2581All": 230, "\u2581Don": 231, "\u2581nas\u0131l": 232, "\u2581misin": 233, "\u2581bunu": 234, "z": 235, "\u2581seni": 236, "ne": 237, "\u2581should": 238, "\u2581sana": 239, "\u2581never": 240, "\u2581Let": 241, "li": 242, "\u2581Bunu": 243, "er": 244, "r": 245, "\u2581olan": 246, "\u2581let": 247, "\u2581mean": 248, "\u2581little": 249, "\u2581only": 250, "\u2581musun": 251, "\u2581off": 252, "\u2581hi\u00e7": 253, "\u2581oldu": 254, "u": 255, "\u2581senin": 256, "\u2581those": 257, "\u2581bile": 258, "\u2581My": 259, "\u2581am": 260, "o": 261, "\u2581Her": 262, "\u2581burada": 263, "\u2581...": 264, "\u2581any": 265, "\u2581doing": 266, "\u2581look": 267, "\u2581Neden": 268, "\u2581very": 269, "\u2581sadece": 270, "\u2581ile": 271, "I": 272, "\u2581thing": 273, "\u2581into": 274, "si": 275, "\u2581two": 276, "\u2581Seni": 277, "\u2581\u0130yi": 278, "\u2581love": 279, "\u2581Onu": 280, "y\u0131": 281, "\u2581where": 282, "\u2581son": 283, "\u2581much": 284, "un": 285, "dir": 286, "\u2581Now": 287, "\u2581help": 288, "--": 289, "\u2581Bana": 290, "\u2581find": 291, "sin": 292, "\u2581life": 293, "\u2581istiyorum": 294, "\u2581than": 295, "di": 296, "yi": 297, "\u2581why": 298, "\u2581day": 299, "\u2581other": 300, "\u2581even": 301, "l": 302, "\u2581Hadi": 303, "\u2581before": 304, "\u2581[": 305, "\u2581Just": 306, "\u2581give": 307, "\u2581work": 308, "\u2581okay": 309, "\u2581g\u00fczel": 310, "\u2581\u015eimdi": 311, "\u2581b\u00f6yle": 312, "\u2581\u00f6yle": 313, "\u2581because": 314, "\u2581biraz": 315, "\u2581Sana": 316, "\u2581Beni": 317, "ta": 318, "\u2581these": 319, "\u2581Where": 320, "te": 321, "\u2581sorry": 322, "\u2581In": 323, "\u2581Mr": 324, "\u2581still": 325, "\u2581Who": 326, "\u2581Are": 327, "\u2581b\u00fcy\u00fck": 328, "\u2581Sadece": 329, "\u2581anything": 330, "\u2581first": 331, "\u2581\u015fu": 332, "\u2581olacak": 333, "\u2581geri": 334, "\u2581talk": 335, "\u2581well": 336, "\u2581away": 337, "l\u0131": 338, "]": 339, "\u2581night": 340, "\u2581\u266a": 341, "ki": 342, "\u2581Bay": 343, "\u2581E\u011fer": 344, "ma": 345, "\u2581Look": 346, "\u2581iki": 347, "\u2581ona": 348, "\u2581Peki": 349, "\u2581biri": 350, "\u2581g\u00fcn": 351, "\u2581neden": 352, "\u2581sure": 353, "\u2581olur": 354, "\u2581ba\u015fka": 355, "\u2581home": 356, "\u2581call": 357, "\u2581thought": 358, "\u2581again": 359, "\u2581onun": 360, "\u2581Benim": 361, "\u2581which": 362, "S": 363, "s\u0131n": 364, "\u2581things": 365, "s\u0131": 366, "\u2581do\u011fru": 367, "im": 368, "ni": 369, "\u2581told": 370, "\u2581Not": 371, "\u2581\u015feyi": 372, "an": 373, "\u2581Thank": 374, "\u2581made": 375, "p": 376, "d\u0131r": 377, "\u2581believe": 378, "\u2581Yani": 379, "lar\u0131n\u0131": 380, "\u2581tek": 381, "\u2581fuck": 382, "\u2581after": 383, "\u2581diye": 384, "\u2581Can": 385, "\u2581fazla": 386, "n\u0131": 387, "\u2581last": 388, "\u2581years": 389, "\u2581put": 390, "\u2581yard\u0131m": 391, "\u2581Your": 392, "\u2581better": 393, "\u2581must": 394, "\u2581Go": 395, "\u2581Get": 396, "\u2581won": 397, "\u2581\u0130\u015fte": 398, "\u2581et": 399, "en": 400, "ly": 401, "\u2581bak": 402, "\u2581When": 403, "\u2581Good": 404, "\u2581\u015feyler": 405, "b": 406, "\u2581#": 407, "\u2581S": 408, "\u2581long": 409, "al": 410, "\u2581guy": 411, "\u2581Burada": 412, "\u2581ederim": 413, "\u2581name": 414, "\u2581hakk\u0131nda": 415, "\u2581around": 416, "\u2581m\u00fc": 417, "\u2581Senin": 418, "\u2581adam": 419, "lerini": 420, "\u2581place": 421, "lerin": 422, "\u2581ever": 423, "\u2581Then": 424, "tan": 425, "\u2581\u015fimdi": 426, "\u2581!": 427, "\u2581Daha": 428, "\u2581k\u00f6t\u00fc": 429, "\u2581gece": 430, "\u2581art\u0131k": 431, "\u2581kim": 432, "\u2581does": 433, "\u2581great": 434, "\u2581doesn": 435, "\u2581biliyorum": 436, "\u2581\u00c7\u00fcnk\u00fc": 437, "\u2581hay\u0131r": 438, "\u2581Belki": 439, "\u2581always": 440, "sa": 441, "\u2581nothing": 442, "\u2581olsun": 443, "\u2581size": 444, "\u2581ol": 445, "yla": 446, "\u2581gerek": 447, "\u2581please": 448, "\u2581Did": 449, "mi": 450, "man": 451, "\u2581may": 452, "\u2581new": 453, "\u2581\u015eu": 454, "lar\u0131n": 455, "\u2581yeni": 456, "\u2581guys": 457, "ten": 458, "\u2581tamam": 459, "h": 460, "\u2581ver": 461, "\u2581feel": 462, "\u2581Tanr\u0131m": 463, "\u2581keep": 464, "\u2581being": 465, "\u2581money": 466, "\u2581ger\u00e7ekten": 467, "\u2581everything": 468, "\u2581through": 469, "\u2581Lord": 470, "\u2581done": 471, "\u2581i\u00e7inde": 472, "\u2581hi\u00e7bir": 473, "\u2581wrong": 474, "\u2581g\u00f6re": 475, "\u2581world": 476, "\u2581lot": 477, "\u2581kind": 478, "\u2581i\u015f": 479, "\u2581Merhaba": 480, "\u2581own": 481, "\u2581kar\u015f\u0131": 482, "d\u0131": 483, "\u2581olabilir": 484, "se": 485, "\u2581might": 486, "\u2581came": 487, "\u2581To": 488, "\u2581wanted": 489, "\u2581leave": 490, "\u2581old": 491, "\u2581Dr": 492, "\u2581left": 493, "\u2581y\u00fczden": 494, "\u2581Ya": 495, "\u2581Biz": 496, "\u2581sir": 497, "\u2581\u00d6yle": 498, "m\u0131\u015f": 499, "\u2581izin": 500, "\u2581happened": 501, "\u2581biliyor": 502, "\u2581demek": 503, "\u2581hear": 504, "\u2581found": 505, "me": 506, "\u2581house": 507, "\u2581Please": 508, "\u2581every": 509, "um": 510, "\u2581biz": 511, "ti": 512, "\u2581For": 513, "\u2581another": 514, "\u2581\u015fekilde": 515, "\u2581L\u00fctfen": 516, "ce": 517, "\u2581understand": 518, "\u2581coming": 519, "\u2581nerede": 520, "\u2581En": 521, "\u2581Here": 522, "\u2581kendi": 523, "\u2581bad": 524, "\u2581oluyor": 525, "\u2581course": 526, "\u2581kill": 527, "\u2581shall": 528, "\u2581Bak": 529, "A": 530, "\u2581Maybe": 531, "lik": 532, "\u2581car": 533, "\u2581Nas\u0131l": 534, "\u2581vard\u0131": 535, "f": 536, "\u2581girl": 537, "\u2581onlar\u0131": 538, "\u2581father": 539, "\u2581ilk": 540, "\u2581buraya": 541, "=": 542, "\u2581orada": 543, "\u2581dead": 544, "\u2581yer": 545, "\u2581big": 546, "daki": 547, "yle": 548, "\u2581stop": 549, "\u2581three": 550, "\u2581geldi": 551, "\u2581ask": 552, "T": 553, "\u2581talking": 554, "\u2581mother": 555, "\u2581s\u00f6yledi": 556, "\u2581y\u0131l": 557, "\u2581i\u015fte": 558, "\u2581same": 559, "\u2581Kim": 560, "\u2581someone": 561, "sun": 562, "\u2581\u00e7\u00fcnk\u00fc": 563, "\u2581else": 564, "\u2581Uh": 565, "ca": 566, "\u2581San\u0131r\u0131m": 567, "iz": 568, "\u2581Hi\u00e7": 569, "\u2581olmak": 570, "\u2581Ger\u00e7ekten": 571, "\u2581ayn\u0131": 572, "\u2581Ona": 573, "\u2581isn": 574, "\u2581Hi": 575, "\u2581B": 576, "\u2581enough": 577, "\u2581t\u00fcm": 578, "\u2581many": 579, "on": 580, "uz": 581, "\u2581hell": 582, "lere": 583, "\u2581al": 584, "\u2581efendim": 585, "\u2581k\u0131z": 586, "l\u0131k": 587, "\u2581Ah": 588, "\u2581l\u00fctfen": 589, "\u2581k\u00fc\u00e7\u00fck": 590, "\u2581onlar": 591, "\u2581i": 592, "\u2581uh": 593, "\u2581care": 594, "\u2581went": 595, "\u2581dakika": 596, "\u2581az": 597, "\u2581Onun": 598, "to": 599, "\u2581fine": 600, "\u2581Al": 601, "g": 602, "\u2581best": 603, "\u2581trying": 604, "\u2581His": 605, "\u2581getting": 606, "\u2581Sonra": 607, "lara": 608, "\u2581birlikte": 609, "\u2581looking": 610, "\u2581oldu\u011fu": 611, "\u2581family": 612, "?\"": 613, "\u2581devam": 614, "\u2581ilgili": 615, "\u2581Te\u015fekk\u00fcrler": 616, "\u2581remember": 617, "\u25811": 618, "\u2581saw": 619, "\u2581stay": 620, "\u2581de\u011filim": 621, "es": 622, "\u2581bize": 623, "\u2581Tanr\u0131": 624, "\u2581show": 625, "\u2581As": 626, "\u2581wasn": 627, "\u2581together": 628, "\u2581men": 629, "\u2581today": 630, "\u2581friend": 631, "C": 632, "\u2581Right": 633, "\u2581Hello": 634, "\u2581most": 635, "\u2581D": 636, "\u2581yani": 637, "\u2581One": 638, "th": 639, "\u2581used": 640, "\u2581para": 641, "\u2581s\u00f6yle": 642, "\u2581Because": 643, "\u2581tam": 644, "c": 645, "nda": 646, "O": 647, "\u2581yourself": 648, "\u2581Bayan": 649, "\u2581wait": 650, "\u2581real": 651, "\u2581m\u0131s\u0131n": 652, "\u2581etmek": 653, "\u2581job": 654, "m\u0131": 655, "nun": 656, "\u2581also": 657, "\u2581Selam": 658, "\u2581Bunun": 659, "\u2581b\u00fct\u00fcn": 660, "\u2581yeah": 661, "\u2581mind": 662, "\u2581G\u00fczel": 663, "\u2581ister": 664, "\u2581Art\u0131k": 665, "/": 666, "\u2581laz\u0131m": 667, "\u2581called": 668, "\u2581kimse": 669, "\u2581next": 670, "du": 671, "\u2581*": 672, "mi\u015f": 673, "\u2581seen": 674, "\u2581already": 675, "\u2581gel": 676, "\u2581geliyor": 677, "\u2581room": 678, "\u2581took": 679, "san": 680, "D": 681, "\u2581knew": 682, "\u2581nice": 683, "\u2581boy": 684, "\u2581Mary": 685, "\u2581problem": 686, "\u2581Or": 687, "\u2581C": 688, "\u2581while": 689, "\u2581Pekala": 690, "\u2581dedi": 691, "ini": 692, "\u2581head": 693, "\u2581try": 694, "\u2581heard": 695, "\u2581without": 696, "\u2581live": 697, "P": 698, "\u2581idea": 699, "\u2581Biraz": 700, "\u2581Wait": 701, "\u2581De": 702, "\u2581tekrar": 703, "\u2581asla": 704, "\u2581istiyorsun": 705, "\u2581yet": 706, "\u2581sizi": 707, "\u2581edin": 708, "\u2581Thanks": 709, "\u2581miyim": 710, "\u2581use": 711, "\u015f": 712, "H": 713, "\u2581saying": 714, "\u2581Of": 715, "\u2581such": 716, "\u2581Onlar": 717, "\u2581siz": 718, "\u2581maybe": 719, "\u2581sizin": 720, "\u2581woman": 721, "\u2581whole": 722, "\u2581bilmiyorum": 723, "\u2581shit": 724, "\u2581wouldn": 725, "\u2581bunun": 726, "\u2581yap\u0131yorsun": 727, "\u2581onlara": 728, "\u2581ki\u015fi": 729, "\u2581\u00f6nemli": 730, "\u2581K": 731, "\u2581Have": 732, "\u2581yere": 733, "t\u0131": 734, "\u25813": 735, "\u2581baby": 736, "\u258110": 737, "\u0131m": 738, "\u2581morning": 739, "\u2581ger\u00e7ek": 740, "n\u0131z": 741, "\u2581days": 742, "\u2581bizim": 743, "\u2581wife": 744, "\u2581bizi": 745, "\u2581killed": 746, "\u2581wanna": 747, "\u2581bakal\u0131m": 748, "\u2581?": 749, "lu": 750, "\u2581sorun": 751, "siniz": 752, "tir": 753, "\u2581ago": 754, "ken": 755, "\u25812": 756, "\u2581istemiyorum": 757, "\u2581hard": 758, "\u2581ka\u00e7": 759, "\u2581\u00e7ocuk": 760, "\u2581end": 761, "\u258120": 762, "\u2581vard\u0131r": 763, "\u2581E": 764, "\u2581New": 765, "\u2581tane": 766, "\u2581few": 767, "\u2581zor": 768, "\u2581both": 769, "dur": 770, "\u2581hemen": 771, "\u2581olmaz": 772, "\u2581matter": 773, "\u2581At": 774, "\u2581etti": 775, "\u2581yapmak": 776, "\u2581ise": 777, "us": 778, "\u2581uzun": 779, "\u2581olmal\u0131": 780, "\u2581meet": 781, "\u2581gotta": 782, "M": 783, "\u2581saat": 784, "\u2581dilerim": 785, "\u2581says": 786, "\u2581bit": 787, "\u2581i\u015fe": 788, "\u2581ha": 789, "\u2581gerekiyor": 790, "ndan": 791, "ine": 792, "\u2581John": 793, "\u2581against": 794, "\u2581s\u00f6z": 795, "\u2581actually": 796, "\u2581school": 797, "\u2581Sorry": 798, "\u2581dostum": 799, "\u2581bring": 800, "\u2581evet": 801, "\u2581until": 802, "\u2581guess": 803, "\u2581pek": 804, "\u2581start": 805, "\u2581pretty": 806, "\u2581OK": 807, "\u2581Tabii": 808, "\u2581Siz": 809, "\u2581i\u015fi": 810, "\u2581insan": 811, "\u2581Take": 812, "\u2581move": 813, "\u2581kabul": 814, "\u2581harika": 815, "\u2581M": 816, "\u2581Sam": 817, "sini": 818, "\u2581anda": 819, "ci": 820, "\u2581alone": 821, "\u2581Ba\u015fka": 822, "\u2581yoksa": 823, "\u2581part": 824, "\u2581ediyorum": 825, "\u2581\u00fc\u00e7": 826, "\u2581biliyorsun": 827, "\u2581gone": 828, "lar\u0131na": 829, "\u2581emin": 830, "\u2581P": 831, "\u2581G": 832, "\u2581Me": 833, "\u2581each": 834, "\u2581Haydi": 835, "lerden": 836, "B": 837, "\u2581friends": 838, "\u2581turn": 839, "ka": 840, "\u2581b\u0131rak": 841, "\u2581year": 842, "\u2581yerde": 843, "\u2581myself": 844, "\u2581e\u011fer": 845, "\u2581zaten": 846, "\u2581face": 847, "ers": 848, "\u2581Ha": 849, "\u2581hafta": 850, "\u2581brother": 851, "s\u0131n\u0131": 852, "\u2581die": 853, "x": 854, "\u2581hand": 855, "\u2581ready": 856, "\u2581case": 857, "\u2581istiyor": 858, "\u2581ediyor": 859, "nde": 860, "\u2581\u00dczg\u00fcn\u00fcm": 861, "\u2581taraf\u0131ndan": 862, "\u2581under": 863, "\u2581true": 864, "\u2581anyone": 865, "ar": 866, "\u2581haven": 867, "\u2581On": 868, "\u2581See": 869, "\u2581play": 870, "\u2581yalan": 871, "\u2581\u0130ki": 872, "\u2581zorunda": 873, "\u2581veya": 874, "\u2581wants": 875, "\u2581knows": 876, "deki": 877, "\u2581insanlar": 878, "\u2581Sorun": 879, "\u2581kad\u0131n": 880, "\u2581gave": 881, "m\u0131z": 882, "\u2581Bilmiyorum": 883, "mak": 884, "lerine": 885, "em": 886, "\u2581\u015funu": 887, "\u2581git": 888, "\u2581Anne": 889, "\u2581Tell": 890, "\u00fc": 891, "\u2581run": 892, "\u2581lost": 893, "\u2581sent": 894, "K": 895, "\u2581Stop": 896, "v": 897, "\u2581kez": 898, "\u2581Dur": 899, "\u2581Biliyorum": 900, "\u2581Son": 901, "\u2581hope": 902, "\u2581truth": 903, "\u2581nedir": 904, "ir": 905, "\u2581Harika": 906, "\u2581Our": 907, "\u2581Jack": 908, "t\u0131r": 909, "\u2581onlar\u0131n": 910, "\u2581hala": 911, "\u2581Te\u015fekk\u00fcr": 912, "\u2581couldn": 913, "\u2581g\u00f6rmek": 914, "\u2581birka\u00e7": 915, "\u2581T": 916, "lardan": 917, "\u2581once": 918, "\u2581Like": 919, "\u2581second": 920, "\u2581Bence": 921, "\u2581misiniz": 922, "yd\u0131": 923, "\u2581Asl\u0131nda": 924, "\u2581person": 925, "\u2581having": 926, "\u2581gereken": 927, "\u2581haz\u0131r": 928, "\u2581between": 929, "niz": 930, "\u2581heart": 931, "\u2581T\u00fcm": 932, "E": 933, "\u2581re": 934, "yu": 935, "\u2581ara": 936, "\u2581B\u00fct\u00fcn": 937, "sen": 938, "\u2581..": 939, "ydi": 940, "\u2581Do\u011fru": 941, "\u2581Fakat": 942, "\u2581happy": 943, "\u2581since": 944, "ie": 945, "\u2581working": 946, "\u2581plan": 947, "\u2581ye": 948, "\u2581pay": 949, "\u2581means": 950, "\u2581karar": 951, "\u2581water": 952, "ra": 953, "\u2581death": 954, "\u2581tonight": 955, "\u2581etme": 956, "\u2581times": 957, "\u2581set": 958, "\u2581Buraya": 959, "\u2581belki": 960, "\u2581ge\u00e7": 961, "\u2581business": 962, "\u2581Hi\u00e7bir": 963, ",\"": 964, "\u2581hep": 965, "\u2581B\u00f6yle": 966, "\u2581thinking": 967, "\u2581seviyorum": 968, "\u2581phone": 969, "G": 970, "\u2581yol": 971, "\u2581Be": 972, "\u00e7": 973, "\u2581Will": 974, "the": 975, "or": 976, "el": 977, "miz": 978, "\u2581su": 979, "\u0131p": 980, "\u2581soon": 981, "be": 982, "\u2581di\u011fer": 983, "\u2581sahip": 984, "w": 985, "\u2581later": 986, "\u2581a\u00e7\u0131k": 987, "\u2581door": 988, "\u2581kontrol": 989, "\u2581far": 990, "\u2581eski": 991, "\u2581kal": 992, "\u2581deal": 993, "\u2581change": 994, "\u2581happen": 995, "\u2581\u00fczerinde": 996, "\u2581\u00e7\u0131kar": 997, "\u2581falan": 998, "\u2581stuff": 999, "\u2581tomorrow": 1000, "\u2581eve": 1001, "\u2581kid": 1002, "\u2581haber": 1003, "\u2581yine": 1004, "\u2581yerine": 1005, "\u2581Baba": 1006, "d\u0131m": 1007, "acak": 1008, "ha": 1009, "\u2581Orada": 1010, "\u2581Dad": 1011, "!\"": 1012, "\u2581worry": 1013, "\u25815": 1014, "\u2581open": 1015, "\u2581buna": 1016, "do": 1017, "\u2581point": 1018, "\u2581late": 1019, "am": 1020, "\u2581Really": 1021, "\u2581yes": 1022, "\u2581kids": 1023, "*": 1024, "\u2581onunla": 1025, "\u2581listen": 1026, "\u2581different": 1027, "\u2581Aman": 1028, "\u2581Give": 1029, "\u2581asked": 1030, "\u2581earth": 1031, "son": 1032, "\u2581benimle": 1033, "\u2581eat": 1034, "mu\u015f": 1035, "ton": 1036, "\u2581de\u011fildi": 1037, "\u2581Bug\u00fcn": 1038, "\u2581hadi": 1039, "\u2581Gel": 1040, "\u2581Listen": 1041, "\u2581Tam": 1042, "\u2581dad": 1043, "\u2581beri": 1044, "min": 1045, "\u2581eden": 1046, "\u2581hands": 1047, "\u2581anne": 1048, "ri": 1049, "dim": 1050, "\u2581eyes": 1051, "\u2581dur": 1052, "F": 1053, "\u2581minutes": 1054, "\u2581number": 1055, "\u2581word": 1056, "\u2581taking": 1057, "\u2581children": 1058, "\u2581probably": 1059, "nden": 1060, "\u25814": 1061, "\u2581gitti": 1062, "\u2581Man": 1063, "\u2581yap": 1064, "\u0131n\u0131": 1065, "\u2581makes": 1066, "\u2581seninle": 1067, "\u2581huh": 1068, "\u2581supposed": 1069, "\u2581Buna": 1070, "\u2581thank": 1071, "lerinden": 1072, "\u2581hurt": 1073, "\u2581body": 1074, "il": 1075, "\u2581s": 1076, "\u2581musunuz": 1077, "\u2581important": 1078, "\u2581Size": 1079, "\u2581ay": 1080, "ro": 1081, "\u2581everyone": 1082, "\u2581halde": 1083, "\u2581crazy": 1084, "\u2581Nothing": 1085, "\u2581Bekle": 1086, "\u2581ho\u015f": 1087, "\u2581olmas\u0131": 1088, "it": 1089, "\u2581minute": 1090, "\u2581Jesus": 1091, "lar\u0131ndan": 1092, "\u2581olmu\u015f": 1093, "\u2581s\u00fcre": 1094, "\u2581kendini": 1095, "\u2581least": 1096, "\u2581party": 1097, "is": 1098, "\u2581making": 1099, "sine": 1100, "\u2581N": 1101, "\u2581baz\u0131": 1102, "\u2581\u00e7ocuklar": 1103, "\u2581inside": 1104, "\u2581baba": 1105, "\u2581eder": 1106, "at": 1107, "\u2581aras\u0131nda": 1108, "\u2581farkl\u0131": 1109, "up": 1110, "\u2581ihtiyac\u0131m": 1111, "\u2581able": 1112, "\u2581mom": 1113, "\u2581story": 1114, "\u2581side": 1115, "\u2581g\u00fcn\u00fc": 1116, "\u2581blood": 1117, "\u2581comes": 1118, "\u2581Onlar\u0131": 1119, "\u2581buradan": 1120, "\u2581Hemen": 1121, "din": 1122, "ah": 1123, "\u2581g\u00f6rd\u00fcm": 1124, "\u2581brought": 1125, "\u2581hit": 1126, "\u2581dedim": 1127, "\u2581Adam": 1128, "\u2581five": 1129, "s\u0131n\u0131z": 1130, "\u2581looks": 1131, "\u2581With": 1132, "\u2581yak\u0131n": 1133, "\u2581week": 1134, "\u2581drink": 1135, "ur": 1136, "\u2581\u00d6z\u00fcr": 1137, "va": 1138, "\u2581yapma": 1139, "\u2581Ayr\u0131ca": 1140, "y\u0131m": 1141, "bi": 1142, "\u2581gidiyor": 1143, "\u2581Yeni": 1144, "\u2581upon": 1145, "\u2581police": 1146, "\u2581chance": 1147, "\u2581fight": 1148, "\u2581power": 1149, "\u2581Say": 1150, "\u258115": 1151, "\u2581yaln\u0131z": 1152, "\u2581close": 1153, "\u2581beautiful": 1154, "\u2581rest": 1155, "su": 1156, "yim": 1157, "\u2581read": 1158, "\u2581hold": 1159, "\u2581yemek": 1160, "\u2581san\u0131r\u0131m": 1161, "\u2581sleep": 1162, "\u2581birini": 1163, "\u2581Mom": 1164, "\u2581hours": 1165, "\u2581boyunca": 1166, "\u2581fun": 1167, "ip": 1168, "\u2581women": 1169, "\u2581bin": 1170, "\u2581erkek": 1171, "\u2581An": 1172, "\u2581though": 1173, "\u2581wish": 1174, "\u2581Tek": 1175, "\u2581\u00f6zel": 1176, "\u2581fire": 1177, "\u2581beraber": 1178, "\u2581Excuse": 1179, "\u2581high": 1180, "ter": 1181, "\u2581gelen": 1182, "\u2581konusunda": 1183, "\u2581young": 1184, "\u2581behind": 1185, "\u2581reason": 1186, "\u2581clear": 1187, "\u2581Elbette": 1188, "ley": 1189, "\u2581yanl\u0131\u015f": 1190, "\u2581four": 1191, "\u2581nefret": 1192, "\u2581afraid": 1193, "\u2581fark": 1194, "\u2581speak": 1195, "\u2581exactly": 1196, "\u2581\u00fczg\u00fcn\u00fcm": 1197, "\u2581question": 1198, "\u2581started": 1199, "\u2581York": 1200, "\u2581daughter": 1201, "\u2581mine": 1202, "\u2581hem": 1203, "\u2581La": 1204, "\u2581Ma": 1205, "\u2581ain": 1206, "\u2581town": 1207, "lerle": 1208, "\u258119": 1209, "\u2581te\u015fekk\u00fcr": 1210, "\u2581easy": 1211, "\u2581ettim": 1212, "\u2581\u015f\u00f6yle": 1213, "\u2581These": 1214, "\u258130": 1215, "\u2581ak\u015fam": 1216, "\u2581\u0130lk": 1217, "\u2581y\u00fcz\u00fcnden": 1218, "\u2581de\u011filsin": 1219, "\u2581Um": 1220, "\u2581a\u00e7": 1221, "\u2581Geri": 1222, "\u2581full": 1223, "\u2581Herkes": 1224, "\u2581husband": 1225, "\u2581hey": 1226, "\u2581met": 1227, "\u2581F": 1228, "\u2581bug\u00fcn": 1229, "\u2581yapt\u0131m": 1230, "\u2581Michael": 1231, "\u2581watch": 1232, "\u2581neler": 1233, "\u2581Sure": 1234, "\u2581shot": 1235, "\u2581child": 1236, "\u2581Fuck": 1237, "\u2581olmad\u0131\u011f\u0131n\u0131": 1238, "\u2581ma": 1239, "\u2581un": 1240, "\u2581te\u015fekk\u00fcrler": 1241, "ba": 1242, "\u2581news": 1243, "\u2581check": 1244, "\u2581died": 1245, "\u2581Buras\u0131": 1246, "\u0131r": 1247, "\u2581anymore": 1248, "\u2581bekle": 1249, "\u2581istedi\u011fim": 1250, "\u2581mutlu": 1251, "\u2581Pek\u00e2l\u00e2": 1252, "\u2581e": 1253, "\u2581game": 1254, "R": 1255, "\u2581y\u00fcz": 1256, "\u2581benden": 1257, "\u2581olsa": 1258, "mek": 1259, "\u2581\u00fczerine": 1260, "\u2581moment": 1261, "\u2581gets": 1262, "\u2581trust": 1263, "The": 1264, "\u2581waiting": 1265, "\u2581oldu\u011fumu": 1266, "\u2581B\u00fcy\u00fck": 1267, "\u2581dinle": 1268, "\u2581tried": 1269, "\u2581verdi": 1270, "\u2581become": 1271, "\u2581yolu": 1272, "siz": 1273, "\u2581months": 1274, "\u2581whatever": 1275, "\u2581g\u00f6r\u00fcn\u00fcyor": 1276, "ic": 1277, "larla": 1278, "\u2581country": 1279, "\u2581Re": 1280, "\u2581olursa": 1281, "\u2581ancak": 1282, "\u2581half": 1283, "\u2581war": 1284, "\u2581free": 1285, "n\u0131z\u0131": 1286, "\u2581David": 1287, "\u2581married": 1288, "\u2581walk": 1289, "\u2581ondan": 1290, "\u2581Sir": 1291, "\u2581line": 1292, "\u2581almak": 1293, "\u2581yard\u0131mc\u0131": 1294, "\u2581l": 1295, "\u2581sabah": 1296, "\u2581yap\u0131yor": 1297, "\u2581getir": 1298, "\u2581Lanet": 1299, "\u2581\u015eey": 1300, "lard\u0131": 1301, "\u2581yoktu": 1302, "\u2581gidelim": 1303, "ul": 1304, "\u2581Mrs": 1305, "\u2581\u00fczere": 1306, "\u2581break": 1307, "\u2581alt\u0131nda": 1308, "\u2581bunlar": 1309, "\u2581herkes": 1310, "\u2581needs": 1311, "\u2581yapt\u0131": 1312, "\u2581Seninle": 1313, "\u0131z": 1314, "\u2581um": 1315, "\u2581goes": 1316, "\u2581Charlie": 1317, "\u2581Yine": 1318, "\u2581save": 1319, "\u2581cut": 1320, "c\u0131": 1321, "ry": 1322, "\u2581couple": 1323, "\u2581gidip": 1324, "\u2581Sizi": 1325, "\u25816": 1326, "\u2581telling": 1327, "\u2581among": 1328, "\u2581hepsi": 1329, "\u2581\u00f6ld\u00fc": 1330, "\u2581H": 1331, "ga": 1332, "\u2581fact": 1333, "\u2581\u00f6z\u00fcr": 1334, "\u258112": 1335, "\u2581dolar": 1336, "\u2581L": 1337, "\u2581given": 1338, "\u2581office": 1339, "\u2581Him": 1340, "\u2581light": 1341, "ko": 1342, "\u2581yan\u0131nda": 1343, "\u2581d\u0131\u015far\u0131": 1344, "ecek": 1345, "\u2581=": 1346, "\u2581Su": 1347, "\u2581sava\u015f": 1348, "\u2581order": 1349, "no": 1350, "\u2581Git": 1351, "\u0131yor": 1352, "\u2581gun": 1353, "\u2581George": 1354, "\u2581Frank": 1355, "\u2581Yok": 1356, "\u2581fakat": 1357, "\u2581sa\u011f": 1358, "\u2581ac\u0131": 1359, "N": 1360, "Bu": 1361, "\u2581stand": 1362, "\u2581normal": 1363, "\u2581olun": 1364, "\u2581Nereye": 1365, "\u2581book": 1366, "\u2581ba\u015f\u0131na": 1367, "\u2581Miss": 1368, "\u2581bir\u015fey": 1369, "za": 1370, "\u2581food": 1371, "\u2581kolay": 1372, "\u2581s\u00f6yl\u00fcyor": 1373, "\u2581answer": 1374, "\u2581Demek": 1375, "\u2581sit": 1376, "\u2581de\u011fildir": 1377, "\u2581Peter": 1378, "\u2581sister": 1379, "\u2581hate": 1380, "\u2581YOU": 1381, "\u2581parents": 1382, "\u2581Bunlar": 1383, "\u2581whom": 1384, "\u2581front": 1385, "ke": 1386, "\u2581t\u00fcr": 1387, "\u2581forget": 1388, "\u2581yapt\u0131n": 1389, "\u2581g\u00f6z": 1390, "\u2581h\u00e2l\u00e2": 1391, "\u2581i\u00e7eri": 1392, "\u00e2": 1393, "\u2581Nerede": 1394, "You": 1395, "\u2581taken": 1396, "\u2581Would": 1397, "\u2581others": 1398, "bu": 1399, "\u2581almost": 1400, "\u2581oraya": 1401, "\u2581durumda": 1402, "\u2581_": 1403, "\u2581konuda": 1404, "\u2581Those": 1405, "\u2581ald\u0131m": 1406, "\u2581city": 1407, "\u2581R": 1408, "\u2581himself": 1409, "\u2581U": 1410, "\u2581alive": 1411, "\u2581ass": 1412, "\u2581Paul": 1413, "\u2581\u0130sa": 1414, "lerinin": 1415, "),": 1416, "\u2581By": 1417, "\u00fcn": 1418, "\u2581be\u015f": 1419, "\u2581quite": 1420, "\u2581bundan": 1421, "\u2581Onunla": 1422, "arak": 1423, "\u2581safe": 1424, "\u2581asl\u0131nda": 1425, "\u2581Kendi": 1426, "\u2581promise": 1427, "\u2581bed": 1428, "\u2581Yard\u0131m": 1429, "\u2581buy": 1430, "\u2581human": 1431, "\u2581Li": 1432, "\u2581either": 1433, "\u2581Hepsi": 1434, "\u2581top": 1435, "\u2581adam\u0131": 1436, "\u2581aren": 1437, "lan": 1438, "l\u00fc": 1439, "\u2581trouble": 1440, "\u2581saniye": 1441, "\u2581s\u00f6yledim": 1442, "\u2581cannot": 1443, "\u2581living": 1444, "\u2581hayal": 1445, "\u2581somebody": 1446, "\u2581tatl\u0131m": 1447, "\u2581send": 1448, "\u2581bilgi": 1449, "\u2581d\u0131\u015f\u0131nda": 1450, "\u258118": 1451, "ik": 1452, "\u2581film": 1453, "\u2581Which": 1454, "der": 1455, "\u2581s\u00fcr\u00fc": 1456, "\u2581B\u0131rak": 1457, "\u2581fear": 1458, "\u2581Mike": 1459, "\u2581ba\u015flad\u0131": 1460, "\u2581El": 1461, "\u2581girls": 1462, "\u2581\u015feye": 1463, "\u2581polis": 1464, "\u2581tabii": 1465, "\u2581cevap": 1466, "\u2581yoktur": 1467, "nu": 1468, "\u2581team": 1469, "lar\u0131nda": 1470, "\u2581\u00e7\u0131kt\u0131": 1471, "\u2581Dinle": 1472, "\u2581Some": 1473, "\u2581Doktor": 1474, "\u2581Ancak": 1475, "\u2581gelir": 1476, "\u2581durum": 1477, "ol": 1478, "\u2581uzak": 1479, "\u2581gen\u00e7": 1480, "ge": 1481, "\u2581J": 1482, "\u2581gelecek": 1483, "ia": 1484, "\u2581ortaya": 1485, "\u2581outside": 1486, "\u2581kan": 1487, "\u2581\u015feyin": 1488, "\u2581zaman\u0131": 1489, "\u2581ate\u015f": 1490, "\u2581Great": 1491, "\u2581Benimle": 1492, "\u2581d\u00fcnya": 1493, "\u2581\u015feyleri": 1494, "\u2581dikkat": 1495, "\u2581oldum": 1496, "\u2581lives": 1497, "\u2581along": 1498, "\u2581Yar\u0131n": 1499, "\u2581senden": 1500, "\u2581oldu\u011funa": 1501, "\u2581Day": 1502, "\u2581hak": 1503, "\u2581Kesinlikle": 1504, "\u2581Joe": 1505, "yan": 1506, "ch": 1507, "\u2581Bizim": 1508, "\u2581istedim": 1509, "\u2581Rabbin": 1510, "ment": 1511, "\u2581nereden": 1512, "\u2581doctor": 1513, "ist": 1514, "san\u0131z": 1515, "\u2581After": 1516, "st": 1517, "\u2581Even": 1518, "\u2581bilir": 1519, "\u2581Bize": 1520, "\u2581olduk\u00e7a": 1521, "\u2581gitmek": 1522, "\u2581konu\u015fmak": 1523, "\u2581az\u0131ndan": 1524, "sam": 1525, "lerde": 1526, "\u2581p": 1527, "\u2581varsa": 1528, "\u2581Kimse": 1529, "L": 1530, "\u2581May": 1531, "\u2581stupid": 1532, "\u2581aptal": 1533, "\u2581Di": 1534, "et": 1535, "\u2581hot": 1536, "\u2581zarar": 1537, "\u2581takip": 1538, "\u2581ahead": 1539, "and": 1540, "_": 1541, "d\u0131\u011f\u0131n\u0131": 1542, "\u2581six": 1543, "\u2581Bizi": 1544, "\u2581tamamen": 1545, "larda": 1546, "\u2581insanlar\u0131n": 1547, "\u2581past": 1548, "\u2581soru": 1549, "\u2581hareket": 1550, "\u2581geldim": 1551, "\u2581\u00dc\u00e7": 1552, "\u2581Efendim": 1553, "\u2581test": 1554, "\u2581Two": 1555, "\u2581d\u00fc\u015f\u00fcn\u00fcyorsun": 1556, "vi": 1557, "ck": 1558, "\u2581yolunda": 1559, "go": 1560, "\u2581Mo": 1561, "dik": 1562, "\u2581s\u00f6ylemek": 1563, "\u2581dog": 1564, "\u2581miyiz": 1565, "\u2581Umar\u0131m": 1566, "\u2581Ta": 1567, "\u2581dis": 1568, "\u2581Bo": 1569, "\u2581miss": 1570, "\u2581Jehovah": 1571, "\u2581ev": 1572, "\u2581i\u015fin": 1573, "\u2581Sa\u011f": 1574, "s\u0131z": 1575, "\u2581San": 1576, "\u2581d\u00f6rt": 1577, "\u2581araba": 1578, "\u2581ait": 1579, "\u2581lanet": 1580, "\u258150": 1581, "\u2581merak": 1582, "\u2581everybody": 1583, "\u2581d\u00fc\u015f\u00fcn\u00fcyorum": 1584, "sh": 1585, "\u2581running": 1586, "\u2581Yapma": 1587, "\u2581sonunda": 1588, "tu": 1589, "\u2581peki": 1590, "\u2581evil": 1591, "\u2581f": 1592, "\u2581sick": 1593, "\u2581Niye": 1594, "\u2581Onlara": 1595, "ze": 1596, "aca\u011f\u0131m": 1597, "\u2581Neler": 1598, "\u2581known": 1599, "\u2581cool": 1600, "\u2581lose": 1601, "\u2581hour": 1602, "\u2581Eve": 1603, "\u2581buldum": 1604, "\u2581yeniden": 1605, "\u2581Na": 1606, "co": 1607, "\u2581follow": 1608, "\u2581land": 1609, "\u2581edecek": 1610, "cu": 1611, "\u2581h\u0131zl\u0131": 1612, "\u2581Yehova": 1613, "\u2581kald\u0131": 1614, "\u2581d\u00fc\u015f\u00fcnd\u00fcm": 1615, "\u2581dinner": 1616, "\u2581sign": 1617, "\u2581\u00e7al\u0131\u015f\u0131yor": 1618, "ad": 1619, "\u2581etmeye": 1620, "LA": 1621, "\u2581seems": 1622, "\u2581possible": 1623, "maya": 1624, "\u2581Hold": 1625, "\u2581d\u00f6n": 1626, "lar\u0131n\u0131n": 1627, "\u2581na": 1628, "\u2581Yoksa": 1629, "\u2581Nice": 1630, "V": 1631, "\u2581dersin": 1632, "\u2581funny": 1633, "What": 1634, "\u2581ones": 1635, "\u2581sahibi": 1636, "\u2581g\u00fc\u00e7l\u00fc": 1637, "\u2581yapt\u0131\u011f\u0131n\u0131": 1638, "\u2581meeting": 1639, "gi": 1640, "mo": 1641, "\u2581ten": 1642, "Evet": 1643, "\u2581feeling": 1644, "\u2581return": 1645, "\u2581olmayan": 1646, "\u2581zamanda": 1647, "\u2581ald\u0131": 1648, "\u2581bitch": 1649, "\u2581hasta": 1650, "\u2581tut": 1651, "\u2581gelip": 1652, "\u2581pick": 1653, "\u2581hava": 1654, "\u2581words": 1655, "\u2581boys": 1656, "\u2581Jo": 1657, "\u2581sense": 1658, "\u2581Ger\u00e7ek": 1659, "\u2581Le": 1660, "\u2581olaca\u011f\u0131n\u0131": 1661, "\u2581Got": 1662, "\u2581Hala": 1663, "\u2581y\u00fcksek": 1664, "\u2581Hem": 1665, "\u2581yeter": 1666, "\u2581Does": 1667, "\u2581bak\u0131n": 1668, "\u2581small": 1669, "\u2581Te": 1670, "\u2581milyon": 1671, "\u2581Put": 1672, "\u2581nor": 1673, "\u2581fikir": 1674, "sak": 1675, "\u2581unto": 1676, "2": 1677, "\u2581leaving": 1678, "tik": 1679, "\u2581control": 1680, "\u2581serious": 1681, "Ne": 1682, "\u2581sex": 1683, "ion": 1684, "\u2581herhangi": 1685, "\u2581Ayn\u0131": 1686, "Y": 1687, "bir": 1688, "\u2581Keep": 1689, "cause": 1690, "\u2581gerekti\u011fini": 1691, "lerinde": 1692, "\u2581indeed": 1693, "\u2581Mm": 1694, "\u2581D\u00fcnya": 1695, "\u2581uygun": 1696, "\u2581turned": 1697, "\u2581birisi": 1698, "\u2581K\u0131z": 1699, "\u2581konu\u015fma": 1700, "\u2581thanks": 1701, "\u2581ihtiyac\u0131": 1702, "\u2581bitti": 1703, "\u2581arada": 1704, "rs": 1705, "\u2581olaca\u011f\u0131m": 1706, "\u2581seem": 1707, "\u2581ge\u00e7en": 1708, "\u2581company": 1709, "\u2581hair": 1710, "\u2581lie": 1711, "\u2581olmadan": 1712, "\u2581asking": 1713, "\u2581D\u00fcn": 1714, "\u2581i\u00e7": 1715, "imi": 1716, "\u2581terk": 1717, "al\u0131m": 1718, "\u2581dolu": 1719, "m\u0131z\u0131": 1720, "ran": 1721, "\u2581adam\u0131n": 1722, "\u00e7i": 1723, "\u2581anyway": 1724, "\u2581kesinlikle": 1725, "\u2581kere": 1726, "\u2581\u00e7al\u0131\u015f\u0131yorum": 1727, "mas\u0131": 1728, "luk": 1729, "\u2581except": 1730, "\u2581Se": 1731, "ty": 1732, "\u2581drive": 1733, "\u2581ad\u0131m": 1734, "\u2581THE": 1735, "\u2581sanm\u0131yorum": 1736, "\u25818": 1737, "\u2581Sizin": 1738, "\u2581fast": 1739, "\u2581happens": 1740, "ting": 1741, "ap": 1742, "\u2581g\u00fcven": 1743, "\u2581touch": 1744, "iyor": 1745, "\u2581duydum": 1746, "lo": 1747, "\u2581Wow": 1748, "\u2581damn": 1749, "\u2581kullan": 1750, "\u2581Everything": 1751, "\u2581Kes": 1752, "\u2581rahat": 1753, "\u2581te": 1754, "\u2581Co": 1755, "lama": 1756, "\u2581Bundan": 1757, "\u2581vermek": 1758, "\u2581evde": 1759, "aca\u011f\u0131z": 1760, "\u2581Am": 1761, "\u2581d\u00fc\u015f\u00fcn": 1762, "\u2581shouldn": 1763, "\u2581Max": 1764, "\u2581el": 1765, "\u2581ad\u0131": 1766, "\u2581aile": 1767, "\u2581Very": 1768, "dum": 1769, "zi": 1770, "\u2581g\u00f6rd\u00fcn": 1771, "\u2581Vay": 1772, "\u2581James": 1773, "\"?": 1774, "\u2581bunlar\u0131": 1775, "\u2581sort": 1776, "ak": 1777, "\u2581kes": 1778, "sunuz": 1779, "\u2581sound": 1780, "\u2581black": 1781, "\u2581million": 1782, "ation": 1783, "\u2581Mi": 1784, "\u2581Ho": 1785, "pe": 1786, "able": 1787, "W": 1788, "\u2581\u00e7\u0131k": 1789, "\u2581Henry": 1790, "\u2581People": 1791, "\u2581special": 1792, "\u2581olurdu": 1793, "\u2581K\u00fc\u00e7\u00fck": 1794, "\u2581learn": 1795, "\u2581eminim": 1796, "ster": 1797, "\u2581perfect": 1798, "\u2581Yo": 1799, "\u2581olmayacak": 1800, "\u2581lady": 1801, "\u2581i\u00e7ine": 1802, "\u2581100": 1803, "\u2581Birka\u00e7": 1804, "\u2581Kahretsin": 1805, "\u2581dear": 1806, "\u2581murder": 1807, "\u2581Mark": 1808, "\u25817": 1809, "...\"": 1810, "\u2581nereye": 1811, "\u2581future": 1812, "\u2581kat": 1813, "\u2581Ar": 1814, "\u2581yeri": 1815, "\u2581system": 1816, "\u2581verin": 1817, "\u2581par\u00e7a": 1818, "\u2581Ja": 1819, "as": 1820, "\u2581scared": 1821, "\u2581olup": 1822, "\u2581bakma": 1823, "\u2581From": 1824, "We": 1825, "\u2581Alex": 1826, "\u2581k\u0131sa": 1827, "\u2581oyun": 1828, "\u2581works": 1829, "\u2581Captain": 1830, "yken": 1831, "\u2581arkada\u015f\u0131m": 1832, "ber": 1833, "\u2581Sence": 1834, "\u2581Help": 1835, "\u2581ele": 1836, "\u2581indir": 1837, "\u2581ana": 1838, "\u2581less": 1839, "\u2581weeks": 1840, "\u2581glad": 1841, "\u0131yorum": 1842, "ner": 1843, "\u2581\u00e7ocu\u011fu": 1844, "\u00f6": 1845, "\u2581W": 1846, "\u2581figure": 1847, "\u2581hayat": 1848, "l\u0131\u011f\u0131": 1849, "\u2581Lo": 1850, "\u2581garip": 1851, "\u2581Ray": 1852, "\u2581c": 1853, "sem": 1854, "\u2581istedi": 1855, "\u2581verdim": 1856, "1": 1857, "ey": 1858, "sek": 1859, "U": 1860, "\u2581bar": 1861, "s\u0131na": 1862, "\u2581Sakin": 1863, "\u2581dair": 1864, "\u2581themselves": 1865, "\u2581hayatta": 1866, "mal\u0131s\u0131n": 1867, "\u2581Az": 1868, "\u2581g\u00f6r\u00fc\u015f\u00fcr\u00fcz": 1869, "\u2581Bye": 1870, "\u2581Was": 1871, "\u2581kesin": 1872, "ja": 1873, "\u2581Fine": 1874, "\u2581s\u00f6yleme": 1875, "of": 1876, "\u2581Babam": 1877, "ver": 1878, "\u2581questions": 1879, "ng": 1880, "\u2581Alo": 1881, "abilir": 1882, "\u2581yapmaya": 1883, "\u2581General": 1884, "\u2581bo\u015f": 1885, "\u2581gizli": 1886, "\u2581telefon": 1887, "\u2581win": 1888, "nizi": 1889, "\u2581air": 1890, "\u2581anybody": 1891, "d\u0131n": 1892, "\u2581evlat": 1893, "\u2581information": 1894, "\u2581date": 1895, "\u2581hangi": 1896, "\u2581olmad\u0131": 1897, "\u2581Ra": 1898, "\u2581worked": 1899, "\u2581yapan": 1900, "\u2581Could": 1901, "\u2581video": 1902, "J": 1903, "\u2581felt": 1904, "bo": 1905, "\u2581Shut": 1906, "\u2581\u00d6yleyse": 1907, "j": 1908, "\u2581hospital": 1909, "\u2581Da": 1910, "\u2581sak\u0131n": 1911, "vo": 1912, "\u2581kendimi": 1913, "ek": 1914, "\u2581g\u00fc\u00e7": 1915, "\u2581Dan": 1916, "\u2581Tekrar": 1917, "\u2581longer": 1918, "unu": 1919, "\u2581Only": 1920, "\u2581geldin": 1921, "mal\u0131y\u0131z": 1922, "\u2581luck": 1923, "\u2581Gidelim": 1924, "\u2581Something": 1925, "No": 1926, "\u2581k": 1927, "\u2581yapaca\u011f\u0131m": 1928, "ece\u011fim": 1929, "\u2581AL": 1930, "\u2581playing": 1931, "\u2581sun": 1932, "\u2581anlat": 1933, "\u2581ge\u00e7ti": 1934, "\u2581diyor": 1935, "\u2581St": 1936, "\u2581kendine": 1937, "\u2581bi": 1938, "sel": 1939, "\u2581seven": 1940, "\u2581risk": 1941, "\u2581gidiyorum": 1942, "\u2581Eski": 1943, "\u2581Ka": 1944, "\u2581write": 1945, "\u2581needed": 1946, "\u2581gir": 1947, "\u2581yar\u0131n": 1948, "\u2581silah": 1949, "\u2581till": 1950, "\u2581Biliyor": 1951, "\u2581alt\u0131": 1952, "\u2581calling": 1953, "\u2581Never": 1954, "\u2581ta": 1955, "\u2581s\u0131k": 1956, "\u2581looked": 1957, "\u2581Rabbi": 1958, "\u2581fault": 1959, "\u2581doktor": 1960, "\u2581weird": 1961, "ktan": 1962, "\u2581bebek": 1963, "\u2581cold": 1964, "\u2581law": 1965, "\u2581secret": 1966, "\u2581clean": 1967, "\u2581Ka\u00e7": 1968, "\u2581Kos": 1969, "\u2581d": 1970, "fi": 1971, "\u2581bence": 1972, "you": 1973, "li\u011fi": 1974, "\u2581i\u015fler": 1975, "\u0131na": 1976, "\u2581white": 1977, "\u2581parti": 1978, "ji": 1979, "sinde": 1980, "\u2581y": 1981, "ling": 1982, "\u2581honey": 1983, "\u2581evidence": 1984, "\u2581choice": 1985, "\u2581m\u0131s\u0131n\u0131z": 1986, "\u2581surely": 1987, "inde": 1988, "di\u011fini": 1989, "\u2581shoot": 1990, "\u2581ortak": 1991, "\u2581shut": 1992, "\u2581early": 1993, "\u2581ba\u011fl\u0131": 1994, "\u2581eye": 1995, "\u2581Bill": 1996, "\u2581Hangi": 1997, "\u2581herif": 1998, "\u2581hissediyorum": 1999, "\u2581state": 2000, "\u2581o\u011flum": 2001, "\u2581Danny": 2002, "\u2581ba\u015f": 2003, "\u2581Ro": 2004, "\u2581V": 2005, "\u2581buras\u0131": 2006, "\u2581fall": 2007, "\u2581olma": 2008, "\u2581adam\u0131m": 2009, "\u2581Paris": 2010, "\u2581ciddi": 2011, "\u258140": 2012, "\u2581k\u0131z\u0131": 2013, "\u2581straight": 2014, "\u2581sefer": 2015, "\u2581\u0130\u00e7eri": 2016, "\u2581diyorsun": 2017, "\u2581Onlar\u0131n": 2018, "\u2581Nick": 2019, "\u2581changed": 2020, "\u2581feet": 2021, "\u2581faith": 2022, "d\u0131k": 2023, "\u2581Pa": 2024, "\u2581takes": 2025, "\u011f": 2026, "\u2581karde\u015fim": 2027, "\u2581iyiyim": 2028, "\u2581numara": 2029, "\u2581certainly": 2030, "\u2581su\u00e7": 2031, "\u2581Stay": 2032, "\u2581\u0130nsanlar": 2033, "\u2581during": 2034, "\u2581Annem": 2035, "\u2581near": 2036, "\u2581seeing": 2037, "\u2581geceler": 2038, "\u2581Jim": 2039, "\u2581rather": 2040, "\u2581yapt\u0131\u011f\u0131": 2041, "sinden": 2042, "Ben": 2043, "\u2581cause": 2044, "\u2581TV": 2045, "\u2581Damn": 2046, "\u2581Para": 2047, "\u2581bulunan": 2048, "\u2581g\u00f6ster": 2049, "ho": 2050, "\u2581created": 2051, "\u2581Bob": 2052, "\u2581picture": 2053, "\u2581hata": 2054, "\u2581loved": 2055, "\u2581Benden": 2056, "\u2581san\u0131yordum": 2057, "\u2581insanlar\u0131": 2058, "\u2581Any": 2059, "ina": 2060, "\u2581dolay\u0131": 2061, "\u2581ship": 2062, "\u2581tahmin": 2063, "\u2581god": 2064, "\u2581veriyorum": 2065, "\u2581moving": 2066, "tur": 2067, "\u258116": 2068, "\u2581yapacak": 2069, "\u2581TO": 2070, "\u2581kendilerine": 2071, "\u2581Shit": 2072, "\u2581d\u00fc\u015f\u00fcn\u00fcyor": 2073, "\u00fcr": 2074, "\u2581inan": 2075, "3": 2076, "land": 2077, "\u2581verir": 2078, "per": 2079, "so": 2080, "\u2581istedi\u011fini": 2081, "ff": 2082, "kar": 2083, "\u2581message": 2084, "\u2581Christ": 2085, "\u2581\u00f6n\u00fcnde": 2086, "\u2581spend": 2087, "\u2581olamaz": 2088, "\u2581First": 2089, "est": 2090, "\u2581report": 2091, "\u2581yapar": 2092, "\u2581catch": 2093, "\u2581giving": 2094, "\u2581government": 2095, "\u2581happening": 2096, "\u25819": 2097, "id": 2098, "men": 2099, "\u2581Uzun": 2100, "\u2581Daniel": 2101, "os": 2102, "let": 2103, "\u2581\u00d6nemli": 2104, "we": 2105, "\u2581dream": 2106, "ut": 2107, "\u2581K\u00f6t\u00fc": 2108, "\u2581yaz": 2109, "\u2581hayat\u0131m": 2110, "\u2581bir\u00e7ok": 2111, "\u2581bul": 2112, "\u2581Jimmy": 2113, "\u2581Father": 2114, "\u2581\u00e7ek": 2115, "\u2581ihtiyac\u0131m\u0131z": 2116, "\u2581thou": 2117, "\u2581Jane": 2118, "\u2581ediyorsun": 2119, "\u2581gidiyorsun": 2120, "\u2581ifade": 2121, "\u2581ikinci": 2122, "\u0130": 2123, "\u2581piece": 2124, "\u2581Ni": 2125, "han": 2126, "\u2581weren": 2127, "\u2581niye": 2128, "\u2581explain": 2129, "\u2581protect": 2130, "\u2581dek": 2131, "\u2581Sarah": 2132, "fa": 2133, "ness": 2134, "\u2581koy": 2135, "believe": 2136, "\u2581Y": 2137, "\u2581arkada\u015f": 2138, "\u2581onlardan": 2139, "by": 2140, "\u2581t": 2141, "\u2581varm\u0131\u015f": 2142, "\u2581Senden": 2143, "\u2581\u00e7al\u0131\u015fma": 2144, "\u2581deli": 2145, "ret": 2146, "\u2581\u00d6nce": 2147, "\u2581building": 2148, "\u2581Pek": 2149, "\u2581can\u0131m": 2150, "\u2581security": 2151, "tim": 2152, "\u2581hi": 2153, "\u2581ihtiyac\u0131n": 2154, "\u2581somewhere": 2155, "\u2581Polis": 2156, "\u2581Di\u011fer": 2157, "\u2581sanki": 2158, "\u2581birinin": 2159, "\u2581m\u00fckemmel": 2160, "\u2581worth": 2161, "\u2581s\u00fcrekli": 2162, "\u2581bet": 2163, "\u2581finally": 2164, "\u2581sat": 2165, "\u2581miydi": 2166, "\u2581olay": 2167, "\u2581ya\u015f\u0131nda": 2168, "\u2581la": 2169, "\u2581King": 2170, "\u2581boss": 2171, "\u2581bilmek": 2172, "\u2581arama": 2173, "\u2581Hmm": 2174, "m\u0131\u015ft\u0131": 2175, "\u2581single": 2176, "\u2581strong": 2177, "\u2581san\u0131yorsun": 2178, "\u2581pro": 2179, "\u2581\u00e7abuk": 2180, "\u2581m\u00fcmk\u00fcn": 2181, "ity": 2182, "\u2581music": 2183, "\u2581kidding": 2184, "\u2581Ver": 2185, "\u2581kept": 2186, "\u2581\u015fark\u0131": 2187, "\u2581mal": 2188, "\u2581red": 2189, "\u2581temiz": 2190, "\u2581Harry": 2191, "\u2581coffee": 2192, "\u2581B\u00f6ylece": 2193, "\u2581kitap": 2194, "\u2581edip": 2195, "\u2581Richard": 2196, "\u2581Amerika": 2197, "ev": 2198, "\u2581Ge\u00e7en": 2199, "\u2581month": 2200, "\u2581Pardon": 2201, "\u2581i\u00e7ki": 2202, "\u2581FBI": 2203, "\u258125": 2204, "\u2581iman": 2205, "\u2581sevindim": 2206, "\u2581act": 2207, "\u2581ra\u011fmen": 2208, "\u2581sweet": 2209, "\u2581neredeyse": 2210, "\u2581missing": 2211, "\u2581kurtar": 2212, "\u2581komik": 2213, "erek": 2214, "\u2581tuhaf": 2215, "\u2581sene": 2216, "\u2581bayan": 2217, "\u2581Devam": 2218, "\u2581Lee": 2219, "\u2581peace": 2220, "imiz": 2221, "\u2581Call": 2222, "\u2581list": 2223, "\u2581Bi": 2224, "\u2581al\u0131p": 2225, "\u2581anlama": 2226, "\u2581Mar": 2227, "\u2581worse": 2228, "\u2581yapaca\u011f\u0131z": 2229, "\u2581Every": 2230, "\u2581Biri": 2231, "maz": 2232, "\u2581soul": 2233, "\u2581birine": 2234, "\u2581vakit": 2235, "\u2581\u00e7al\u0131\u015f": 2236, "\u2581Kan": 2237, "\u2581biliyoruz": 2238, "\u2581babam": 2239, "\u2581ya\u015fl\u0131": 2240, "\u2581S\u00f6yle": 2241, "\u2581rahats\u0131z": 2242, "\u2581co": 2243, "\u2581par\u00e7as\u0131": 2244, "\u2581Bible": 2245, "\u2581mesaj": 2246, "\u2581lead": 2247, "\u2581b": 2248, "\u2581Tony": 2249, "\u2581Whatever": 2250, "yen": 2251, "\u2581yap\u0131yorum": 2252, "\u2581sebebi": 2253, "\u2581gelmi\u015f": 2254, "\u2581dava": 2255, "\u2581dans": 2256, "\u2581Haz\u0131r": 2257, "dy": 2258, "gen": 2259, "y\u0131z": 2260, "\u2581pass": 2261, "mizi": 2262, "\u2581r": 2263, "\u2581park": 2264, "\u2581class": 2265, "\u2581bebe\u011fim": 2266, "\u2581g\u00f6t\u00fcr": 2267, "\u2581kimin": 2268, "\u2581\u00f6l\u00fc": 2269, "\u2581a\u015fa\u011f\u0131": 2270, "\u2581millet": 2271, "5": 2272, "\u2581Sanki": 2273, "\u2581attack": 2274, "\u2581Eminim": 2275, "\u2581art": 2276, "\u2581Actually": 2277, "\u2581se": 2278, "meye": 2279, "\u2581short": 2280, "istan": 2281, "\u2581G\u00fcnayd\u0131n": 2282, "\u2581step": 2283, "\u2581sensin": 2284, "\u2581per": 2285, "\u2581kapat": 2286, "\u2581Bazen": 2287, "\u2581Whoa": 2288, "\u2581decided": 2289, "\u2581memnun": 2290, "\u2581Siktir": 2291, "ok": 2292, "\u2581Kara": 2293, "\u2581Sa": 2294, "\u2581dance": 2295, "mu": 2296, "\u2581Nobody": 2297, "\u2581poor": 2298, "\u2581pain": 2299, "\u2581Emin": 2300, "\u258114": 2301, "\u2581handle": 2302, "\u2581\u00c7ocuklar": 2303, "\u2581yola": 2304, "\u2581dediler": 2305, "\u2581gelin": 2306, "\u2581age": 2307, "yse": 2308, "\u2581Make": 2309, "seniz": 2310, "\u2581s\u00f6yledin": 2311, "\u2581pull": 2312, "\u2581olsayd\u0131": 2313, "one": 2314, "\u2581entire": 2315, "Cause": 2316, "\u2581group": 2317, "\u2581meant": 2318, "\u2581sometimes": 2319, "\u2581neyse": 2320, "\u2581al\u0131n": 2321, "\u2581gidiyoruz": 2322, "\u25810": 2323, "\u2581\u00f6l\u00fcm": 2324, "\u2581hen\u00fcz": 2325, "\u2581situation": 2326, "Hay\u0131r": 2327, "\u2581evening": 2328, "\u2581voice": 2329, "\u2581tatl\u0131": 2330, "\u2581Remember": 2331, "\u2581elbette": 2332, "\u2581road": 2333, "\u258124": 2334, "\u2581lying": 2335, "ham": 2336, "\u2581m\u0131yd\u0131": 2337, "\u2581Baz\u0131": 2338, "\u2581mad": 2339, "\u2581derece": 2340, "fe": 2341, "\u2581bende": 2342, "\u258111": 2343, "\u2581belli": 2344, "\u2581ettin": 2345, "\u2581konu\u015f": 2346, "\u2581konu": 2347, "d\u0131\u011f\u0131": 2348, "less": 2349, "\u2581lucky": 2350, "\u2581sounds": 2351, "\u2581Someone": 2352, "\u2581wedding": 2353, "\u2581gerekir": 2354, "\u2581durumu": 2355, "\u2581dedin": 2356, "\u2581using": 2357, "\u2581s\u0131ra": 2358, "\u2581\u00f6nceki": 2359, "\u2581Kendini": 2360, "\u2581verme": 2361, "\u2581gider": 2362, "ru": 2363, "\u2581\u015fans": 2364, "\u2581none": 2365, "\u2581mistake": 2366, "\u2581Bak\u0131n": 2367, "aca\u011f\u0131n\u0131": 2368, "\u2581yeme\u011fi": 2369, "\u2581worried": 2370, "\u00e7a": 2371, "\u2581ah": 2372, "\u2581bulmak": 2373, "\u2581tercih": 2374, "\u2581yeterli": 2375, "\u2581benziyor": 2376, "lar\u0131m": 2377, "\u2581Lu": 2378, "\u2581ek": 2379, "m\u0131\u015ft\u0131m": 2380, "ymi\u015f": 2381, "\u2581busy": 2382, "\u2581Tabi": 2383, "\u2581d\u00fcn": 2384, "\u2581olmas\u0131n\u0131": 2385, "\u2581broke": 2386, "\u2581oh": 2387, "\u2581Ed": 2388, "\u2581swear": 2389, "\u2581nobody": 2390, "\u2581mouth": 2391, "\u2581Isn": 2392, "\u2581Hep": 2393, "\u2581sebep": 2394, "\u2581Asla": 2395, "\u2581Saat": 2396, "gan": 2397, "\u2581S\u00f6z": 2398, "hi": 2399, "\u2581Red": 2400, "\u2581share": 2401, "\u2581y\u0131ld\u0131r": 2402, "\u2581dua": 2403, "\u2581bilmiyor": 2404, "\u2581iyilik": 2405, "\u2581isterim": 2406, "\u2581Ondan": 2407, "\u2581\u00e7o\u011fu": 2408, "\u2581knowledge": 2409, "\u2581Un": 2410, "\u2581bag": 2411, "\u2581e\u015f": 2412, "\u2581Fi": 2413, "eth": 2414, "ay\u0131m": 2415, "\u258117": 2416, "\u2581edece\u011fim": 2417, "\u2581heavens": 2418, "\u2581yemin": 2419, "\u2581wonder": 2420, "\u2581watching": 2421, "\u2581x": 2422, "\u2581cinayet": 2423, "\u00fcm": 2424, "wa": 2425, "elim": 2426, "\u2581sor": 2427, "\u2581\u0130": 2428, "\u2581su\u00e7lu": 2429, "\u2581Huh": 2430, "\u2581defa": 2431, "\u2581ride": 2432, "\u2581beat": 2433, "\u2581street": 2434, "\u2581korkun\u00e7": 2435, "\u2581key": 2436, "\u2581American": 2437, "\u2581olanlar": 2438, "\u2581%": 2439, "\u2581a\u011f\u0131r": 2440, "\u2581anla\u015fma": 2441, "\u2581\u015f\u00fcphe": 2442, "\u2581welcome": 2443, "\u2581hizmet": 2444, "\u2581expect": 2445, "\u2581About": 2446, "\u2581olmaya": 2447, "\u2581forever": 2448, "\u2581kald\u0131r": 2449, "\u2581present": 2450, "\u2581tak": 2451, "\u2581born": 2452, "d\u00fcr": 2453, "acaks\u0131n": 2454, "\u2581support": 2455, "\u2581Ki": 2456, "\u2581neydi": 2457, "\u2581ran": 2458, "\u2581movie": 2459, "\u2581Most": 2460, "\u2581er": 2461, "It": 2462, "\u2581punishment": 2463, "\u2581\u00e7eneni": 2464, "melisin": 2465, "\u2581caught": 2466, "m\u0131\u015ft\u0131r": 2467, "\u2581Everyone": 2468, "\u2581became": 2469, "\u2581Ey": 2470, "\u2581completely": 2471, "\u2581certain": 2472, "\u2581almaya": 2473, "\u2581talked": 2474, "for": 2475, "\u2581istersen": 2476, "\u2581de\u011fer": 2477, "\u2581throw": 2478, "\u2581table": 2479, "\u00ee": 2480, "\u2581signs": 2481, "mas\u0131n\u0131": 2482, "ian": 2483, "\u2581teklif": 2484, "\u2581Dikkat": 2485, "\u2581dark": 2486, "\u2581zamand\u0131r": 2487, "\u2581hikaye": 2488, "ard": 2489, "\u2581Steve": 2490, "\u2581Book": 2491, "\u2581Martin": 2492, "\u2581space": 2493, "\u2581X": 2494, "\u2581problems": 2495, "\u2581bas": 2496, "\u2581\u00fcst\u00fcne": 2497, "\u2581Leave": 2498, "\u2581alabilir": 2499, "iyorum": 2500, "\u2581program": 2501, "\u2581tired": 2502, "\u2581Araba": 2503, "\u2581Buradan": 2504, "\u2581\u0130\u015f": 2505, "\u2581Move": 2506, "ong": 2507, "\u2581etmi\u015f": 2508, "\u2581yerinde": 2509, "\u2581amazing": 2510, "yo": 2511, "\u2581history": 2512, "\u2581ground": 2513, "\u2581Chris": 2514, "\u2581Aynen": 2515, "\u2581drop": 2516, "\u2581Kitap": 2517, "\u2581Three": 2518, "\u2581within": 2519, "\u0131c\u0131": 2520, "\u2581biliyordum": 2521, "\u2581brain": 2522, "\u2581yesterday": 2523, "\u2581Ko": 2524, "\u2581terrible": 2525, "\u2581crime": 2526, "\u2581]": 2527, "\u2581Con": 2528, "\u2581Er": 2529, "ted": 2530, "\u2581Zaten": 2531, "\u2581offer": 2532, "ana": 2533, "\u2581De\u011fil": 2534, "ym\u0131\u015f": 2535, "\u2581public": 2536, "\u2581oldu\u011fum": 2537, "\u2581Ara": 2538, "\u2581erken": 2539, "\u2581Muhtemelen": 2540, "\u2581yedi": 2541, "\u2581oda": 2542, "\u2581birthday": 2543, "\u2581diyorum": 2544, "\u2581berbat": 2545, "\u2581S\u0131r": 2546, "\u2581Vi": 2547, "\u2581Ga": 2548, "\u2581sakin": 2549, "\u2581Mac": 2550, "\u2581basit": 2551, "\u2581personal": 2552, "ate": 2553, "\u2581veren": 2554, "lard\u0131r": 2555, "\u2581across": 2556, "\u2581thee": 2557, "\u2581sonraki": 2558, "\u2581Ana": 2559, "\u2581cover": 2560, "\u2581canl\u0131": 2561, "\u2581\u015feyden": 2562, "\u2581yeterince": 2563, "\u2581davet": 2564, "eyim": 2565, "\u2581alan": 2566, "\u2581doubt": 2567, "\u2581hang": 2568, "\u2581Ye": 2569, "\u2581box": 2570, "\u2581area": 2571, "\u2581\u0130nan": 2572, "\u2581saved": 2573, "\u2581ex": 2574, "\u2581Robert": 2575, "\u2581sonu": 2576, "\u2581ses": 2577, "\u2581yan": 2578, "\u2581Noel": 2579, "\u2581paid": 2580, "\u2581di": 2581, "\u2581prison": 2582, "\u2581H\u00e2l\u00e2": 2583, "lar\u0131m\u0131z": 2584, "\u2581sell": 2585, "\u2581middle": 2586, "\u2581zamanlar": 2587, "\u2581floor": 2588, "\u2581Looks": 2589, "\u2581tak\u0131m": 2590, "\u2581kendisi": 2591, "\u2581ald\u0131n": 2592, "\u2581beyaz": 2593, "\u2581al\u0131r": 2594, "\u2581wear": 2595, "\u2581oldu\u011fundan": 2596, "\u2581Eric": 2597, "\u2581careful": 2598, "\u2581Merak": 2599, "\u2581s\u0131cak": 2600, "\u2581sende": 2601, "ama": 2602, "\u2581Tommy": 2603, "\u2581Affedersiniz": 2604, "\u2581Indeed": 2605, "Allah": 2606, "\u2581teslim": 2607, "\u2581\u00fcst\u00fcnde": 2608, "\u2581totally": 2609, "\u2581Jake": 2610, "\u2581bulduk": 2611, "\u2581Yap": 2612, "\u2581Ryan": 2613, "pi": 2614, "don": 2615, "\u258113": 2616, "\u2581sayg\u0131": 2617, "lin": 2618, "layan": 2619, "\u2581m": 2620, "l\u00fck": 2621, "\u2581ziyaret": 2622, "\u2581Bar": 2623, "\u2581b\u00f6ylece": 2624, "\u2581ad\u0131na": 2625, "Bir": 2626, "\u2581inanam\u0131yorum": 2627, "met": 2628, "\u2581unutma": 2629, "\u2581Billy": 2630, "\u2581i\u015fim": 2631, "\u2581record": 2632, "\u0131yorsun": 2633, "\u2581~": 2634, "\u2581Park": 2635, "\u2581insanlara": 2636, "\u2581g\u00f6r\u00fcn\u00fcyorsun": 2637, "\u2581kalp": 2638, "ger": 2639, "\u00e7\u0131": 2640, "mon": 2641, "\u2581Think": 2642, "\u2581Ba\u015fkan": 2643, "\u2581ger\u00e7e\u011fi": 2644, "\u2581Has": 2645, "di\u011fi": 2646, "\u2581kalan": 2647, "\u2581Ay": 2648, "age": 2649, "\u2581wonderful": 2650, "\u2581Oraya": 2651, "lar\u0131n\u0131z\u0131": 2652, "\u2581killing": 2653, "\u2581respect": 2654, "len": 2655, "ant": 2656, "\u2581yaln\u0131zca": 2657, "\u2581Big": 2658, "\u2581bekliyor": 2659, "l\u0131\u011fa": 2660, "\u2581song": 2661, "\u2581A\u00e7": 2662, "\u2581often": 2663, "\u2581anywhere": 2664, "\u2581forgive": 2665, "\u2581king": 2666, "\u2581yapm\u0131\u015f": 2667, "\u2581Kapa": 2668, "\u2581Sha": 2669, "\u2581More": 2670, "\u2581Messenger": 2671, "\u2581Mother": 2672, "\u2581Everybody": 2673, "\u0131nda": 2674, "\u2581Ri": 2675, "\u2581/": 2676, "\u2581Christmas": 2677, "van": 2678, "\u2581Avrupa": 2679, "\u2581position": 2680, "ece\u011fini": 2681, "\u2581olacaks\u0131n": 2682, "\u2581ring": 2683, "\u2581sonsuz": 2684, "\u2581court": 2685, "\u2581finish": 2686, "\u2581g\u00fcvenlik": 2687, "\u2581President": 2688, "\u2581\u00fcst": 2689, "\u2581oradan": 2690, "\u2581isim": 2691, "po": 2692, "\u2581s\u00f6yl\u00fcyorum": 2693, "\u2581Acele": 2694, "\u2581Daddy": 2695, "\u2581service": 2696, "\u00e9": 2697, "ebilir": 2698, "\u2581clothes": 2699, "\u2581seks": 2700, "\u2581Ca": 2701, "\u2581verdi\u011fi": 2702, "pa": 2703, "yum": 2704, "\u2581elde": 2705, "\u2581force": 2706, "\u2581Ke\u015fke": 2707, "\u2581accident": 2708, "\u2581cell": 2709, "\u2581Musa": 2710, "\u2581bought": 2711, "\u2581Anna": 2712, "\u2581Hava": 2713, "\u2581hale": 2714, "\u2581yara": 2715, "\u2581uyu\u015fturucu": 2716, "m\u0131yor": 2717, "\u2581Watch": 2718, "\u2581join": 2719, "\u2581dangerous": 2720, "\u2581ya\u015fam": 2721, "\u2581charge": 2722, "\u2581istedi\u011fin": 2723, "Z": 2724, "\u2581whose": 2725, "\u2581sea": 2726, "\u2581istemiyor": 2727, "\u2581hasn": 2728, "\u2581girlfriend": 2729, "\u2581Earth": 2730, "\u2581destek": 2731, "\u2581Johnny": 2732, "\u2581fair": 2733, "4": 2734, "yet": 2735, "\u2581de\u011filiz": 2736, "kan": 2737, "\u2581simple": 2738, "\u2581instead": 2739, "\u2581koca": 2740, "\u2581Kaptan": 2741, "\u2581dile": 2742, "\u2581bilirsin": 2743, "\u2581fell": 2744, "\u2581Hell": 2745, "\u2581k\u00f6pek": 2746, "\u2581yan\u0131na": 2747, "\u2581edebilir": 2748, "\u2581forward": 2749, "\u2581hepsini": 2750, "\u2581DNA": 2751, "\u2581yapt\u0131klar\u0131": 2752, "He": 2753, "\u2581kahve": 2754, "\u2581g\u00f6r\u00fcyor": 2755, "\u2581arkada\u015f\u0131": 2756, "\u2581korku": 2757, "\u2581hayat\u0131n\u0131": 2758, "\u2581Kutsal": 2759, "\u2581hearts": 2760, "\u2581Fa": 2761, "\u2581Gece": 2762, "yiz": 2763, "\u2581wearing": 2764, "\u2581Charles": 2765, "\u2581Fire": 2766, "\u2581moved": 2767, "\u2581g": 2768, "\u2581n": 2769, "lar\u0131m\u0131": 2770, "\u2581tehlikeli": 2771, "\u2581\u00e7al\u0131\u015fan": 2772, "\u2581der": 2773, "\u2581stopped": 2774, "ies": 2775, "\u2581Neyse": 2776, "\u2581Car": 2777, "\u2581spent": 2778, "\u2581realize": 2779, "\u2581whether": 2780, "\u2581Sal": 2781, "\u2581seviyor": 2782, "hmm": 2783, "\u2581final": 2784, "\u2581relationship": 2785, "\u2581forgot": 2786, "\u2581patient": 2787, "\u2581kap\u0131": 2788, "\u2581sitting": 2789, "\u2581Be\u015f": 2790, "\u2581train": 2791, "\u2581\u00c7abuk": 2792, "\u2581acaba": 2793, "\u2581bizimle": 2794, "\u2581example": 2795, "\u2581proud": 2796, "\u2581calls": 2797, "\u2581derler": 2798, "lak": 2799, "\u2581Welcome": 2800, "\u2581as\u0131l": 2801, "\u0131m\u0131": 2802, "\u2581arka": 2803, "\u2581d\u00fcnyan\u0131n": 2804, "\u2581promised": 2805, "\u2581alaca\u011f\u0131m": 2806, "lerim": 2807, "\u2581\u015euna": 2808, "\u2581Si": 2809, "ku": 2810, "\u2581Po": 2811, "\u2581\u00f6ld\u00fcrmek": 2812, "\u2581agree": 2813, "\u2581kavga": 2814, "tin": 2815, "\u2581visit": 2816, "\u2581de\u011fi\u015ftir": 2817, "\u2581imagine": 2818, "\u2581Didn": 2819, "mesi": 2820, "\u2581witness": 2821, "\u2581Hen\u00fcz": 2822, "\u2581anlam\u0131na": 2823, "op": 2824, "\u2581ka": 2825, "\u2581Kate": 2826, "\u2581olmal\u0131s\u0131n": 2827, "\u2581annem": 2828, "mda": 2829, "\u2581muhtemelen": 2830, "\u2581buddy": 2831, "\u2581station": 2832, "\u2581quiet": 2833, "\u2581olmas\u0131n": 2834, "\u2581field": 2835, "\u2581inkar": 2836, "\u2581killer": 2837, "\u2581\u015eaka": 2838, "\u2581y\u0131l\u0131nda": 2839, "\u2581fix": 2840, "\u2581decision": 2841, "\u2581IT": 2842, "\u2581gay": 2843, "\u2581ettik": 2844, "\u2581yapacaks\u0131n": 2845, "\u2581olas\u0131": 2846, "\u2581&": 2847, "\u2581resmi": 2848, "\u2581veriyor": 2849, "\u2581Doctor": 2850, "\u2581English": 2851, "sinin": 2852, "\u2581kelime": 2853, "ow": 2854, "lerimiz": 2855, "\u2581Last": 2856, "\u2581otur": 2857, "\u2581missed": 2858, "\u2581Sak\u0131n": 2859, "\u2581evine": 2860, "\u2581anl\u0131yorum": 2861, "\u2581hide": 2862, "abilirim": 2863, "\u2581gives": 2864, "\u2581giden": 2865, "\u00e7e": 2866, "\u2581si": 2867, "\u2581hat\u0131rl\u0131yor": 2868, "miyor": 2869, "\u2581\u00e7a\u011f\u0131r": 2870, "shi": 2871, "he": 2872, "ung": 2873, "\u2581\u015fehir": 2874, "\u2581\u00c7ocuk": 2875, "her": 2876, "\u2581hediye": 2877, "\u2581G\u00f6r\u00fc\u015f\u00fcr\u00fcz": 2878, "\u2581kafa": 2879, "\u2581buldun": 2880, "\u2581Yu": 2881, "\u2581\u00f6n": 2882, "\u2581Boston": 2883, "\u2581blow": 2884, "\u2581Sonunda": 2885, "\u2581difficult": 2886, "\u2581smart": 2887, "\u2581kal\u0131n": 2888, "\u2581Hatta": 2889, "\u2581marry": 2890, "\u2581French": 2891, "\u2581interested": 2892, "\u2581sizinle": 2893, "\u2581Matt": 2894, "ette": 2895, "\u2581yerini": 2896, "\u2581\u0130\u015fe": 2897, "\u2581neither": 2898, "\u2581accept": 2899, "\u2581strange": 2900, "\u2581\u00e7ekil": 2901, "\u2581kamera": 2902, "\u2581Rab": 2903, "\u2581bank": 2904, "\u2581telefonu": 2905, "\u2581tehdit": 2906, "\u2581ufak": 2907, "\u2581apartment": 2908, "\u2581eight": 2909, "\u2581gerekiyordu": 2910, "\u2581oldu\u011fun": 2911, "\u2581Yanl\u0131\u015f": 2912, "sal": 2913, "je": 2914, "les": 2915, "\u2581Open": 2916, "\u2581fikrim": 2917, "\u2581s\u00f6yl\u00fcyorsun": 2918, "\u2581Ge\u00e7": 2919, "mal\u0131y\u0131m": 2920, "\u2581marriage": 2921, "ova": 2922, "ici": 2923, "\u2581Ooh": 2924, "\u2581model": 2925, "\u2581Ok": 2926, "\u2581Anyway": 2927, "\u2581suppose": 2928, "\u2581wrote": 2929, "\u2581ak": 2930, "\u2581quick": 2931, "\u2581verici": 2932, "\u2581g\u00f6rmeye": 2933, "\u2581k\u0131z\u0131m": 2934, "\u2581Carl": 2935, "\u2581haline": 2936, "\u00fcn\u00fc": 2937, "\u2581paper": 2938, "\u2581g\u00f6r\u00fcyorum": 2939, "\u2581Perhaps": 2940, "\u2581bilmiyordum": 2941, "\u2581letter": 2942, "\u2581kiss": 2943, "\u2581Cal": 2944, "lar\u0131yla": 2945, "\u2581Dar": 2946, "\u2581Since": 2947, "\u2581rock": 2948, "\u2581lunch": 2949, "\u2581d\u00fcnyada": 2950, "\u2581bazen": 2951, "\u2581attention": 2952, "\u2581Gi": 2953, "\u2581card": 2954, "\u2581lived": 2955, "\u2581Var": 2956, "\u2581Bobby": 2957, "\u2581al\u0131yor": 2958, "\u2581hatta": 2959, "\u2581boat": 2960, "leriyle": 2961, "\u2581Next": 2962, "\u2581sert": 2963, "\u2581sat\u0131n": 2964, "\u2581istiyorsan": 2965, "\u2581third": 2966, "\u2581Mal": 2967, "\u2581gelmek": 2968, "may\u0131n": 2969, "\u2581Hepimiz": 2970, "s\u00fcn": 2971, "\u2581Anl\u0131yorum": 2972, "\u2581Gu": 2973, "teki": 2974, "\u2581zengin": 2975, "\u2581i\u015fini": 2976, "\u2581contact": 2977, "\u2581wake": 2978, "abiliriz": 2979, "gu": 2980, "ysa": 2981, "\u2581Tatl\u0131m": 2982, "\u2581star": 2983, "\u2581boyfriend": 2984, "\u2581yapar\u0131m": 2985, "\u2581Still": 2986, "\u2581Over": 2987, "ren": 2988, "\u2581babas\u0131": 2989, "\u2581trip": 2990, "\u2581yapal\u0131m": 2991, "\u2581involved": 2992, "\u2581cop": 2993, "\u2581yapmam": 2994, "\u2581yapmay\u0131": 2995, "\u2581fighting": 2996, "\u2581tan\u0131yor": 2997, "\u2581paray\u0131": 2998, "\u2581kulak": 2999, "all": 3000, "\u2581partner": 3001, "\u2581interesting": 3002, "mde": 3003, "\u2581a\u015fk": 3004, "\u2581istiyoruz": 3005, "\u2581Ba": 3006, "\u2581Cor": 3007, "s\u0131nda": 3008, "lar\u0131m\u0131z\u0131": 3009, "\u2581gelince": 3010, "line": 3011, "\u2581do\u011fum": 3012, "\u2581kazan": 3013, "\u2581standing": 3014, "\u2581katil": 3015, "\u2581ice": 3016, "\u2581finished": 3017, "\u2581above": 3018, "\u2581o\u011flu": 3019, "\u2581Kar": 3020, "\u2581geldik": 3021, "\u2581ball": 3022, "\u2581window": 3023, "\u2581kalacak": 3024, "\u2581Sit": 3025, "\u2581Scott": 3026, "\u2581\u00e7\u0131kma": 3027, "\u2581ya\u015f\u0131yor": 3028, "\u2581Brian": 3029, "\u2581yak\u0131nda": 3030, "nce": 3031, "meliyiz": 3032, "\u0131k": 3033, "\u2581freak": 3034, "\u2581seat": 3035, "\u2581ways": 3036, "my": 3037, "kin": 3038, "\u2581hepimiz": 3039, "\u2581Kevin": 3040, "\u2581mess": 3041, "\u2581beyler": 3042, "\u2581ad\u0131n\u0131": 3043, "amaz": 3044, "\u2581g\u00f6steriyor": 3045, "\u2581self": 3046, "li\u011fe": 3047, "\u2581Nas\u0131ls\u0131n": 3048, "\u2581ilgin\u00e7": 3049, "\u2581geldi\u011fini": 3050, "\u2581iyisi": 3051, "\u2581dude": 3052, "\u2581i\u015faret": 3053, "\u2581yak": 3054, "\u2581alt": 3055, "\u2581America": 3056, "\u2581hakl\u0131": 3057, "Do": 3058, "\u2581victim": 3059, "\u2581Z": 3060, "ot": 3061, "\u2581verece\u011fim": 3062, "\u2581appreciate": 3063, "\u2581azab\u0131": 3064, "\u2581fish": 3065, "And": 3066, "\u2581\u015eunu": 3067, "\u2581alt\u0131na": 3068, "\u2581isteyen": 3069, "\u2581Ev": 3070, "\u2581ileri": 3071, "\u2581benzer": 3072, "\u2581\u00e7e\u015fit": 3073, "\u2581kaza": 3074, "\u2581tabi": 3075, "\u2581a\u015f\u0131k": 3076, "\u2581kalmak": 3077, "\u2581etti\u011fini": 3078, "\u2581t\u00fcrl\u00fc": 3079, "\u2581mercy": 3080, "\u2581Walter": 3081, "ece\u011fiz": 3082, "lanm\u0131\u015f": 3083, "\u2581\u00e7ift": 3084, "\u2581dene": 3085, "\u2581gentlemen": 3086, "\u2581yava\u015f": 3087, "\u2581bear": 3088, "\u2581Kendimi": 3089, "\u2581sizden": 3090, "\u2581Anything": 3091, "tic": 3092, "\u2581derin": 3093, "\u2581enjoy": 3094, "\u2581scene": 3095, "que": 3096, "\u2581Yaln\u0131z": 3097, "\u2581ikna": 3098, "\u2581reach": 3099, "ary": 3100, "d\u00fc": 3101, "\u0131\u015f": 3102, "\u2581evi": 3103, "\u2581deep": 3104, "\u2581sa\u00e7ma": 3105, "\u2581galiba": 3106, "\u2581Neyi": 3107, "tor": 3108, "\u2581Sometimes": 3109, "\u2581Hakl\u0131s\u0131n": 3110, "\u2581lan": 3111, "\u2581unless": 3112, "\u2581South": 3113, "\u2581s\u00f6ylemi\u015ftim": 3114, "\u2581\u00e7\u0131kan": 3115, "\u2581\u00e2": 3116, "\u0131lm\u0131\u015f": 3117, "\u2581broken": 3118, "\u2581gurur": 3119, "\u2581metre": 3120, "mer": 3121, "diniz": 3122, "\u2581ba\u011flant\u0131": 3123, "\u2581kara": 3124, "t\u0131m": 3125, "\u2581screw": 3126, "\u2581drunk": 3127, "\u2581Ken": 3128, "\u2581alm\u0131\u015f": 3129, "\u2581Should": 3130, "leme": 3131, "ive": 3132, "\u2581dahil": 3133, "\u2581store": 3134, "\u2581Clark": 3135, "\u2581City": 3136, "\u2581War": 3137, "bil": 3138, "\u2581form": 3139, "inin": 3140, "ab": 3141, "\u2581named": 3142, "\u2581geliyorum": 3143, "\u2581account": 3144, "\u2581Rachel": 3145, "\u2581loves": 3146, "mayacak": 3147, "\u2581Olmaz": 3148, "\u2581Ajan": 3149, "\u2581grup": 3150, "\u2581smell": 3151, "\u2581\u00d6zel": 3152, "\u2581haberi": 3153, "\u2581stick": 3154, "chi": 3155, "\u2581private": 3156, "\u2581page": 3157, "\u2581forth": 3158, "tar": 3159, "\u2581g\u00fcnler": 3160, "\u2581believed": 3161, "\u2581hotel": 3162, "\u2581round": 3163, "\u2581ayak": 3164, "\u2581nefes": 3165, "kten": 3166, "\u2581thy": 3167, "\u2581Ho\u015f\u00e7a": 3168, "\u2581plane": 3169, "\u2581favor": 3170, "\u2581Tim": 3171, "\u2581Eddie": 3172, "\u2581olmay\u0131": 3173, "\u2581araya": 3174, "\u2581angry": 3175, "\u2581Gidip": 3176, "\u2581Ad\u0131": 3177, "\u2581hundred": 3178, "\u2581deme": 3179, "\u2581gift": 3180, "\u2581kay\u0131p": 3181, "\u2581definitely": 3182, "\u2581study": 3183, "\u2581West": 3184, "\u2581teach": 3185, "\u2581d\u0131\u015far\u0131da": 3186, "\u2581Kendine": 3187, "\u2581passed": 3188, "\u2581prove": 3189, "\u2581Hu": 3190, "\u2581so\u011fuk": 3191, "\u2581excuse": 3192, "\u2581Nereden": 3193, "\u2581Ate\u015f": 3194, "\u2581calm": 3195, "Ma": 3196, "\u2581Show": 3197, "\u2581Black": 3198, "\u2581sin": 3199, "\u2581Love": 3200, "\u2581Annen": 3201, "\u2581sever": 3202, "\u2581duruyor": 3203, "out": 3204, "\u2581Bunlar\u0131": 3205, "\u2581yolunu": 3206, "\u2581etmez": 3207, "\u2581sal": 3208, "\u2581geldiniz": 3209, "\u2581g\u00fcle": 3210, "\u2581yukar\u0131": 3211, "ize": 3212, "\u2581blue": 3213, "\u2581edildi": 3214, "\u2581grow": 3215, "sana": 3216, "\u2581path": 3217, "\u2581zorunday\u0131m": 3218, "\u2581following": 3219, "lerdir": 3220, "ful": 3221, "10": 3222, "\u2581worship": 3223, "\u2581Hurry": 3224, "i\u015f": 3225, "\u2581bilen": 3226, "ker": 3227, "\u2581sesini": 3228, "\u2581g\u00fcvenli": 3229, "ron": 3230, "\u2581Kusur": 3231, "\u2581bahsediyorsun": 3232, "\u2581Once": 3233, "taki": 3234, "\u2581Mutlu": 3235, "\u2581Van": 3236, "\u2581kar": 3237, "\u2581\u0130nsan": 3238, "\u2581ni": 3239, "\u2581gitsin": 3240, "\u2581tree": 3241, "\u2581r\u00fcya": 3242, "\u2581Back": 3243, "\u2581lawyer": 3244, "\u2581truck": 3245, "if": 3246, "\u2581koru": 3247, "old": 3248, "\u2581choose": 3249, "\u2581fit": 3250, "\u2581vakti": 3251, "\u2581believers": 3252, "\u2581learned": 3253, "\u2581biriyle": 3254, "\u2581crap": 3255, "gar": 3256, "lerinizi": 3257, "\u2581Tu": 3258, "\u2581g\u00f6rev": 3259, "che": 3260, "sta": 3261, "\u2581verecek": 3262, "mas\u0131na": 3263, "way": 3264, "7": 3265, "\u2581alacak": 3266, "\u2581planet": 3267, "\u2581kap\u0131y\u0131": 3268, "\u2581Yalan": 3269, "\u2581Yemek": 3270, "\u2581low": 3271, "\u2581helped": 3272, "\u2581dress": 3273, "\u2581resim": 3274, "\u2581feels": 3275, "\u2581Luke": 3276, "\u2581sad": 3277, "\u2581Du": 3278, "\u2581wall": 3279, "\u2581rich": 3280, "\u2581surprise": 3281, "\u2581bunlar\u0131n": 3282, "land\u0131": 3283, "ney": 3284, "ski": 3285, "\u2581k\u0131r": 3286, "\u2581serbest": 3287, "\u2581Rose": 3288, "\u25812.": 3289, "\u2581g\u00fcnah": 3290, "\u2581cops": 3291, "iniz": 3292, "\u2581miles": 3293, "\u2581i\u015fleri": 3294, "\u2581olay\u0131": 3295, "\u2581Chi": 3296, "\u2581seconds": 3297, "\u2581\u015faka": 3298, "\u2581starting": 3299, "\u2581Ba\u015f": 3300, "\u2581honest": 3301, "mayaca\u011f\u0131m": 3302, "\u2581towards": 3303, "\u2581Try": 3304, "\u2581yapabilirim": 3305, "inden": 3306, "\u2581club": 3307, "\u2581fly": 3308, "amam": 3309, "\u2581ourselves": 3310, "\u2581destroy": 3311, "\u2581\u00e7al\u0131\u015f\u0131yorsun": 3312, "\u2581Thomas": 3313, "\u2581anlam\u0131": 3314, "\u2581zamanlarda": 3315, "\u2581address": 3316, "\u2581Pete": 3317, "\u2581e\u011flenceli": 3318, "\u2581b\u00fcy\u00fc": 3319, "\u2581edenler": 3320, "\u2581istemedim": 3321, "\u2581difference": 3322, "\u2581reward": 3323, "\u2581Jerry": 3324, "\u2581kalm\u0131\u015f": 3325, "\u2581Neredeyse": 3326, "lerimizi": 3327, "\u2581Biliyorsun": 3328, "abilirsin": 3329, "\u2581anlad\u0131m": 3330, "\u2581count": 3331, "\u2581ge\u00e7mi\u015f": 3332, "\u2581birden": 3333, "\u2581sap": 3334, "\u2581sona": 3335, "\u2581kap": 3336, "\u2581inanan": 3337, "\u2581adamlar": 3338, "ov": 3339, "year": 3340, "\u2581computer": 3341, "\u2581\u00f6ld\u00fcrd\u00fc": 3342, "\u2581file": 3343, "m\u0131za": 3344, "\u2581olmad\u0131\u011f\u0131": 3345, "\u2581dying": 3346, "\u2581Han": 3347, "\u2581hungry": 3348, "\u2581cry": 3349, "\u2581b\u0131rak\u0131n": 3350, "\u2581rules": 3351, "\u2581\u00f6\u011frenmek": 3352, "\u2581heaven": 3353, "\u2581Too": 3354, "\u2581g\u00f6nder": 3355, "\u2581Turn": 3356, "\u2581blame": 3357, "\u2581judge": 3358, "\u2581yapt\u0131\u011f\u0131m": 3359, "\u2581pleasure": 3360, "\u258160": 3361, "may\u0131": 3362, "\u2581arkada\u015f\u0131n": 3363, "\u2581experience": 3364, "\u2581olman": 3365, "\u2581ders": 3366, "\u2581demektir": 3367, "\u2581afternoon": 3368, "\u2581yap\u0131lan": 3369, "\u2581spirit": 3370, "\u2581yakla\u015f\u0131k": 3371, "\u2581walking": 3372, "meyecek": 3373, "\u2581istemem": 3374, "\u2581Olamaz": 3375, "\u2581\u00f6deme": 3376, "\u2581energy": 3377, "nd": 3378, "\u2581Amy": 3379, "\u2581sesi": 3380, "\u2581equal": 3381, "\u2581k\u0131zlar": 3382, "mi\u015ftir": 3383, "\u2581d\u0131\u015f\u0131": 3384, "m\u0131yorum": 3385, "\u00fb": 3386, "\u2581upset": 3387, "\u2581Ju": 3388, "\u2581build": 3389, "\u2581Lisa": 3390, "\u2581M\u00fckemmel": 3391, "\u2581okul": 3392, "\u2581200": 3393, "lerimi": 3394, "\u2581college": 3395, "\u2581adama": 3396, "\u2581board": 3397, "\u2581Honey": 3398, "\u2581liked": 3399, "\u2581sake": 3400, "\u2581yana": 3401, "\u2581Star": 3402, "\u2581holding": 3403, "\u2581Claire": 3404, "\u2581tip": 3405, "net": 3406, "\u2581Anla\u015f\u0131ld\u0131": 3407, "\u2581AB": 3408, "\u2581davran": 3409, "\u2581iddia": 3410, "6": 3411, "\u2581ar\u0131yor": 3412, "\u2581yapt\u0131k": 3413, "\u2581type": 3414, "\u2581Y\u00fcr\u00fc": 3415, "\u2581kendisine": 3416, "\u2581ula\u015f": 3417, "\u2581Boy": 3418, "\u2581k\u0131z\u0131n": 3419, "\u2581local": 3420, "\u2581fena": 3421, "\u2581horse": 3422, "\u2581wine": 3423, "\u2581Time": 3424, "can": 3425, "\u2581deeds": 3426, "\u2581gerekli": 3427, "\u2581jail": 3428, "s\u0131ndan": 3429, "\u2581G\u00f6r\u00fcn\u00fc\u015f": 3430, "\u2581k\u0131sm\u0131": 3431, "\u2581s\u0131rada": 3432, "\u2581ayr\u0131": 3433, "\u2581Andy": 3434, "\u2581\u0131\u015f\u0131k": 3435, "\u2581cash": 3436, "ish": 3437, "\u2581gold": 3438, "\u2581bus": 3439, "\u2581s\u00f6yler": 3440, "\u2581kimseye": 3441, "\u2581etmeyi": 3442, "gin": 3443, "\u2581kalma": 3444, "ph": 3445, "ING": 3446, "\u2581\u00e7\u0131karma": 3447, "\u2581beginning": 3448, "fer": 3449, "\u2581g\u00f6rmedim": 3450, "\u2581books": 3451, "\u2581enemy": 3452, "mp": 3453, "\u2581honor": 3454, "\u2581se\u00e7im": 3455, "\u2581taste": 3456, "\u2581s\u00f6yleyeyim": 3457, "\u2581hurry": 3458, "ous": 3459, "\u2581duydun": 3460, "\u2581kimsenin": 3461, "Oh": 3462, "\u2581thousand": 3463, "\u2581foot": 3464, "\u2581yapamam": 3465, "\u2581Cha": 3466, "\u2581tough": 3467, "\u2581alma": 3468, "\u2581tedavi": 3469, "\u0131m\u0131z": 3470, "\u2581engel": 3471, "\u2581perhaps": 3472, "\u2581market": 3473, "\u2581olan\u0131": 3474, "\u2581pislik": 3475, "\u2581Otur": 3476, "\u2581due": 3477, "\u2581Ak": 3478, "\u2581House": 3479, "\u2581gidecek": 3480, "meliyim": 3481, "\u2581tavsiye": 3482, "\u2581ikiniz": 3483, "\u2581command": 3484, "\u2581Zaman": 3485, "\u2581driving": 3486, "ent": 3487, "\u2581s\u00fcrece": 3488, "\u2581AND": 3489, "\u2581Bende": 3490, "\u2581continue": 3491, "\u2581uyan": 3492, "\u2581m\u00fczik": 3493, "\u2581Out": 3494, "\u0131l": 3495, "\u2581g\u00fcc\u00fc": 3496, "\u2581b\u0131rakma": 3497, "\u2581names": 3498, "\u2581ta\u015f": 3499, "\u2581yerden": 3500, "\u2581koruma": 3501, "\u2581gittim": 3502, "\u2581Kal": 3503, "\u2581ara\u015ft\u0131rma": 3504, "\u2581unut": 3505, "\u2581ba\u015fla": 3506, "\u2581gas": 3507, "\u2581Before": 3508, "\u2581av": 3509, "ig": 3510, "\u0131ld\u0131": 3511, "\u25811,": 3512, "\u2581Jason": 3513, "\u2581idiot": 3514, "\u2581kalmad\u0131": 3515, "\u2581Hay": 3516, "\u2581further": 3517, "\u258121": 3518, "ang": 3519, "\u2581\u00f6rnek": 3520, "\u2581kendilerini": 3521, "\u2581Telefon": 3522, "\u2581Anlad\u0131m": 3523, "d\u0131n\u0131z": 3524, "n\u0131za": 3525, "\u2581say\u0131": 3526, "t\u00fc": 3527, "\u2581hayat\u0131": 3528, "\u2581Baban": 3529, "\u2581se\u00e7": 3530, "\u2581Agent": 3531, "\u2581worst": 3532, "\u2581arrest": 3533, "\u2581mission": 3534, "\u2581geldi\u011finde": 3535, "\u2581\u00f6lm\u00fc\u015f": 3536, "\u2581Pi": 3537, "\u2581brothers": 3538, "m\u0131n": 3539, "\u2581sky": 3540, "\u2581Chuck": 3541, "\u2581machine": 3542, "dunuz": 3543, "\u2581Check": 3544, "\u2581istiyorsunuz": 3545, "\u2581ok": 3546, "\u2581getirdim": 3547, "\u2581\u0130yiyim": 3548, "\u2581gayet": 3549, "\u2581onlarla": 3550, "\u2581olabilirim": 3551, "\u2581Eli": 3552, "\u2581sevgili": 3553, "\u2581owe": 3554, "\u2581ladies": 3555, "\u2581whoever": 3556, "\u2581Olur": 3557, "\u2581m\u00fccadele": 3558, "\u2581Nedir": 3559, "\u2581buraday\u0131m": 3560, "\u2581gibiydi": 3561, "tta": 3562, "\u2581kalk": 3563, "\u2581White": 3564, "\u2581fark\u0131nda": 3565, "\u2581acele": 3566, "\u2581magic": 3567, "\u2581can\u0131na": 3568, "\u2581herkesin": 3569, "\u2581kald\u0131m": 3570, "\u2581yo": 3571, "\u2581William": 3572, "meyece\u011fim": 3573, "\u2581stuck": 3574, "bel": 3575, "\u2581drug": 3576, "\u2581Durun": 3577, "\u2581Simon": 3578, "\u2581fool": 3579, "\u2581durdur": 3580, "\u2581yaz\u0131k": 3581, "\u2581enerji": 3582, "\u2581Mmm": 3583, "\u2581hath": 3584, "\u2581Somebody": 3585, "\u2581\u00e7\u00f6z": 3586, "\u2581yoldan": 3587, "\u2581Ciddi": 3588, "tch": 3589, "\u2581Pan": 3590, "\u2581World": 3591, "\u2581zevk": 3592, "\u2581nedeni": 3593, "\u00f6r": 3594, "\u2581level": 3595, "\u2581joke": 3596, "\u2581guide": 3597, "\u0131yoruz": 3598, "\u2581army": 3599, "\u2581Master": 3600, "\u2581Roger": 3601, "\u2581muhte\u015fem": 3602, "\u2581showed": 3603, "\u2581usually": 3604, "\u2581\u00c7\u0131k": 3605, "\u2581escape": 3606, "\u2581Stan": 3607, "\u2581ki\u015finin": 3608, "\u2581Emily": 3609, "\u2581Em": 3610, "\u2581Dostum": 3611, "c\u0131k": 3612, "\u2581tea": 3613, "\u2581carry": 3614, "\u2581yolda": 3615, "\u2581tarafta": 3616, "\u2581consider": 3617, "\u2581putting": 3618, "\u2581Want": 3619, "\u2581ikisi": 3620, "\u2581elinde": 3621, "\u2581Bo\u015f": 3622, "\u2581eating": 3623, "\u2581\u00e7ocuklar\u0131": 3624, "day": 3625, "off": 3626, "\u2581mention": 3627, "\u2581aras\u0131ndaki": 3628, "\u2581Dave": 3629, "\u2581s\u0131ras\u0131nda": 3630, "\u2581verdik": 3631, "\u2581destroyed": 3632, "\u2581bok": 3633, "\u2581hakk\u0131": 3634, "\u2581sleeping": 3635, "\u2581lovely": 3636, "\u2581Alice": 3637, "\u2581tarafa": 3638, "\u2581h\u00fck\u00fcm": 3639, "\u2581iyidir": 3640, "\u2581a\u015fk\u0131na": 3641, "\u2581Say\u0131n": 3642, "\u2581helping": 3643, "\u2581oldun": 3644, "\u2581EU": 3645, "\u2581edeyim": 3646, "\u2581durma": 3647, "\u2581Washington": 3648, "\u2581k\u0131l": 3649, "\u2581kan\u0131t": 3650, "ndaki": 3651, "\u2581ikimiz": 3652, "l\u00e2": 3653, "\u2581bastard": 3654, "\u2581budur": 3655, "\u2581\u0130\u00e7": 3656, "\u2581olacakt\u0131r": 3657, "\u2581Per": 3658, "\u2581allowed": 3659, "\u2581drugs": 3660, "\u2581Pro": 3661, "ex": 3662, "\u2581\u015feytan": 3663, "\u2581cute": 3664, "\u2581istedi\u011fi": 3665, "\u2581yapabilir": 3666, "\u2581listening": 3667, "\u2581Kur": 3668, "\u2581ceza": 3669, "\u2581yap\u0131yoruz": 3670, "\u2581common": 3671, "\u2581bil": 3672, "\u2581held": 3673, "\u2581ekibi": 3674, "\u2581Bal": 3675, "\u2581bizden": 3676, "\u2581figured": 3677, "\u2581olaca\u011f\u0131z": 3678, "\u2581vur": 3679, "\u2581\u0130kinci": 3680, "\u2581Kral": 3681, "\u2581taraftan": 3682, "sha": 3683, "\u2581bol": 3684, "\u2581match": 3685, "\u2581kar\u015f\u0131l\u0131k": 3686, "\u2581neyin": 3687, "\u2581fat": 3688, "l\u0131yor": 3689, "\u258122": 3690, "RE": 3691, "\u2581kad\u0131n\u0131n": 3692, "\u2581g\u00fcvende": 3693, "\u2581Gar": 3694, "\u2581g\u00fcnde": 3695, "\u2581Los": 3696, "jo": 3697, "\u2581weapon": 3698, "\u2581bilim": 3699, "rah": 3700, "\u2581ba\u015f\u0131ma": 3701, "\u2581arm": 3702, "\u2581inan\u0131lmaz": 3703, "\u2581Aile": 3704, "ated": 3705, "ilen": 3706, "\u2581Their": 3707, "\u2581eh": 3708, "\u2581gidin": 3709, "mi\u015fti": 3710, "\u2581Ted": 3711, "Ey": 3712, "wood": 3713, "\u2581quickly": 3714, "\u2581Emma": 3715, "\u2581huge": 3716, "This": 3717, "\u2581burda": 3718, "\u2581Grace": 3719, "\u2581d\u00fc\u015f\u00fcnm\u00fc\u015ft\u00fcm": 3720, "ydu": 3721, "\u2581Kat": 3722, "\u2581cat": 3723, "\u2581general": 3724, "\u2581Arthur": 3725, "\u2581Bring": 3726, "\u2581a\u015f\u0131r\u0131": 3727, "\u2581siyah": 3728, "\u2581feelings": 3729, "\u2581kad\u0131nlar": 3730, "\u2581em": 3731, "\u2581wind": 3732, "\u2581earlier": 3733, "emem": 3734, "\u2581hayvan": 3735, "\u2581favorite": 3736, "\u015e": 3737, "\u2581etti\u011fi": 3738, "ks": 3739, "\u2581price": 3740, "\u2581yan\u0131": 3741, "\u2581d\u00f6nd\u00fc": 3742, "\u2581camera": 3743, "\u2581\u00e7oktan": 3744, "\u2581Phil": 3745, "\u2581bomba": 3746, "\u2581blind": 3747, "\u2581complete": 3748, "\u2581olduklar\u0131n\u0131": 3749, "iyorsun": 3750, "bar": 3751, "d\u0131\u011f\u0131m": 3752, "\u2581M\u00fc": 3753, "\u2581pre": 3754, "\u2581nine": 3755, "\u2581yapt\u0131\u011f\u0131n": 3756, "\u2581Carter": 3757, "\u2581officer": 3758, "\u2581ald\u0131k": 3759, "\u2581darling": 3760, "\u2581ayr\u0131ca": 3761, "\u2581Times": 3762, "bre": 3763, "umu": 3764, "\u2581gitme": 3765, "\u2581D\u00f6rt": 3766, "\u2581Kyle": 3767, "\u2581mutlaka": 3768, "\u2581Moses": 3769, "\u2581verdin": 3770, "\u2581Amerikan": 3771, "\u2581Christian": 3772, "\u2581po": 3773, "\u2581quit": 3774, "\u2581dalga": 3775, "\u2581Little": 3776, "\u2581\u015e\u00fcphesiz": 3777, "\u2581edelim": 3778, "\u2581tanr\u0131m": 3779, "\u2581patron": 3780, "suz": 3781, "\u2581gitmi\u015f": 3782, "\u00fcp": 3783, "\u2581access": 3784, "\u2581Maria": 3785, "tra": 3786, "\u2581tap": 3787, "\u2581European": 3788, "\u2581san": 3789, "\u2581ya\u015fayan": 3790, "\u2581peygamber": 3791, "\u2581Us": 3792, "\u2581yarar": 3793, "\u2581muydu": 3794, "\u2581\u00e7\u0131k\u0131yor": 3795, "\u2581turns": 3796, "abilecek": 3797, "\u2581ca": 3798, "ism": 3799, "\u2581konusu": 3800, "\u2581built": 3801, "\u2581Larry": 3802, "\u2581ediyoruz": 3803, "\u2581uyar": 3804, "\u2581duty": 3805, "\u2581kitab\u0131": 3806, "\u2581yay\u0131n": 3807, "\u2581korumak": 3808, "\u2581yabanc\u0131": 3809, "\u2581president": 3810, "\u2581guilty": 3811, "\u2581d\u00fcr\u00fcst": 3812, "rt": 3813, "\u2581ettiler": 3814, "\u2581G\u00f6rd\u00fcn": 3815, "\u2581teki": 3816, "Yeah": 3817, "\u2581Chief": 3818, "\u2581Jeff": 3819, "\u2581bitir": 3820, "\u2581g\u00f6steri": 3821, "\u2581\u00e7aba": 3822, "\u2581notice": 3823, "\u2581sevgi": 3824, "\u2581Eh": 3825, "\u2581staying": 3826, "\u2581admit": 3827, "\u2581baban": 3828, "\u2581Cam": 3829, "\u2581hayat\u0131m\u0131": 3830, "\u2581sight": 3831, "\u2581zay\u0131f": 3832, "n\u00fcn": 3833, "\u2581Birlikte": 3834, "\u2581reading": 3835, "mar": 3836, "\u2581taught": 3837, "\u2581THAT": 3838, "All": 3839, "\u2581beer": 3840, "\u2581Tamamd\u0131r": 3841, "\u2581s\u00f6ylemi\u015fti": 3842, "duk": 3843, "\u2581interest": 3844, "s\u0131n\u0131n": 3845, "\u2581places": 3846, "time": 3847, "\u2581decide": 3848, "fuck": 3849, "\u2581yourselves": 3850, "\u2581apart": 3851, "gra": 3852, "\u2581Bununla": 3853, "\u2581\u00fclke": 3854, "\u2581Today": 3855, "\u2581d\u00fc\u015f\u00fcn\u00fcyordum": 3856, "\u2581Ho\u015f": 3857, "\u2581hat": 3858, "\u2581\u00e7\u0131k\u0131p": 3859, "\u2581m\u0131y\u0131m": 3860, "gel": 3861, "\u2581\u015eeytan": 3862, "\u2581Yemin": 3863, "\u2581gelmedi": 3864, "\u2581impossible": 3865, "\u2581haydi": 3866, "\u00fcl": 3867, "\u2581kurban": 3868, "iyle": 3869, "\u2581Jan": 3870, "ac": 3871, "\u2581d\u00fc\u015fman": 3872, "\u2581Minister": 3873, "\u2581sald\u0131r\u0131": 3874, "\u2581kutu": 3875, "\u2581bulun": 3876, "\u2581dollars": 3877, "\u2581s\u00f6ylemi\u015ftin": 3878, "\u2581\u00e7ocu\u011fun": 3879, "\u2581green": 3880, "\u2581sa\u011flam": 3881, "\u2581shoes": 3882, "\u2581Galiba": 3883, "\u2581Five": 3884, "\u2581s\u00f6yleyece\u011fim": 3885, "\u2581\u00f6ld\u00fcr": 3886, "bet": 3887, "\u2581Alan": 3888, "bra": 3889, "uyor": 3890, "\u2581izle": 3891, "\u2581Bul": 3892, "\u2581gidece\u011fim": 3893, "\u2581parmak": 3894, "\u2581press": 3895, "\u2581hat\u0131rl\u0131yorum": 3896, "\u2581large": 3897, "\u2581steal": 3898, "\u2581double": 3899, "\u2581Bil": 3900, "\u2581Happy": 3901, "\u2581gelmiyor": 3902, "\u2581bakay\u0131m": 3903, "\u2581lies": 3904, "\u2581Yeter": 3905, "\u2581skin": 3906, "\u2581waste": 3907, "\u2581gerekecek": 3908, "\u2581severim": 3909, "\u2581oldu\u011funda": 3910, "\u2581plans": 3911, "lerdi": 3912, "\u2581banka": 3913, "\u2581bununla": 3914, "\u2581giri\u015f": 3915, "\u2581Min": 3916, "\u2581teacher": 3917, "\u2581fa": 3918, "\u2581Kad\u0131n": 3919, "\u2581slow": 3920, "\u2581action": 3921, "zu": 3922, "\u2581neck": 3923, "\u2581gitmem": 3924, "\u2581Detective": 3925, "\u258123": 3926, "\u2581Har": 3927, "\u2581herhalde": 3928, "\u2581Holy": 3929, "\u2581demi\u015fti": 3930, "una": 3931, "\u2581track": 3932, "\u2581raise": 3933, "\u2581herself": 3934, "var": 3935, "\u2581begin": 3936, "\u2581\u015firket": 3937, "\u2581din": 3938, "\u2581\u00e7\u0131kmak": 3939, "\u2581yiyecek": 3940, "\u2581karanl\u0131k": 3941, "\u2581kat\u0131l": 3942, "t\u00fcr": 3943, "\u2581avukat": 3944, "\u2581Birisi": 3945, "\u2581Surely": 3946, "\u2581bilgisayar": 3947, "\u2581ortadan": 3948, "\u2581selam": 3949, "\u2581Sean": 3950, "\u2581\u00e7\u0131km\u0131\u015f": 3951, "\u2581her\u015feyi": 3952, "\u2581picked": 3953, "\u2581Annie": 3954, "\u2581sing": 3955, "Yes": 3956, "\u2581itself": 3957, "\u2581shop": 3958, "\u2581oyna": 3959, "\u2581olmam": 3960, "\u2581\u00b6": 3961, "\u2581d\u00fc\u015f\u00fcnme": 3962, "\u00fd": 3963, "\u2581code": 3964, "\u2581written": 3965, "\u2581buldu": 3966, "\u2581United": 3967, "\u2581ba\u015far\u0131l\u0131": 3968, "\u2581search": 3969, "\u2581\u00f6ld\u00fcrme": 3970, "ben": 3971, "\u2581Dedektif": 3972, "\u2581Hasta": 3973, "nize": 3974, "\u2581extra": 3975, "\u2581harm": 3976, "\u2581bunch": 3977, "\u2581revealed": 3978, "iyet": 3979, "\u2581Ke": 3980, "\u2581yaramaz": 3981, "\u2581zalim": 3982, "\u2581kullanma": 3983, "\u2581OF": 3984, "bin": 3985, "\u2581Pre": 3986, "\u2581drinking": 3987, "\u2581cross": 3988, "\u2581sence": 3989, "\u2581rid": 3990, "\u2581Aptal": 3991, "\u2581Ru": 3992, "\u2581pregnant": 3993, "\u2581Zo": 3994, "\u2581itiraf": 3995, "\u2581dikkatli": 3996, "\u2581olanlar\u0131": 3997, "\u2581innocent": 3998, "\u2581pressure": 3999, "\u2581Up": 4000, "\u2581Uncle": 4001, "\u2581Louis": 4002, "\u2581Dean": 4003, "\u2581oldu\u011fumuzu": 4004, "\u2581Were": 4005, "\u2581church": 4006, "\u2581keeping": 4007, "m\u00fc\u015f": 4008, "\u2581process": 4009, "\u2581smoke": 4010, "\u2581enter": 4011, "\u2581Sava\u015f": 4012, "\u2581yap\u0131yorsunuz": 4013, "rken": 4014, "\u2581Erkek": 4015, "yon": 4016, "\u2581chief": 4017, "\u2581\u00f6\u011fren": 4018, "\u2581Leo": 4019, "\u2581\u00f6nceden": 4020, "\u2581willing": 4021, "dun": 4022, "\u2581Affedersin": 4023, "\u2581bulundu": 4024, "ser": 4025, "\u2581serve": 4026, "\u2581Ms": 4027, "\u2581Yak\u0131nda": 4028, "\u2581cost": 4029, "\u2581remain": 4030, "\u2581Mc": 4031, "\u2581moon": 4032, "\u2581hearing": 4033, "\u2581hole": 4034, "\u2581g\u00fcn\u00fcn": 4035, "\u2581sorumlu": 4036, "\u2581ba\u015flad\u0131m": 4037, "\u2581Ge": 4038, "con": 4039, "\u2581evinde": 4040, "\u2581\u00e7al\u0131\u015ft\u0131m": 4041, "\u2581taraf\u0131": 4042, "\u2581began": 4043, "\u2581bulma": 4044, "ilmi\u015f": 4045, "lon": 4046, "\u2581Ali": 4047, "\u2581s\u0131k\u0131": 4048, "\u2581duyuyor": 4049, "\u2581sekiz": 4050, "amazs\u0131n": 4051, "\u2581zorundas\u0131n": 4052, "\u2581spot": 4053, "\u2581girdi": 4054, "\u2581sayesinde": 4055, "\u2581ge\u00e7ir": 4056, "\u2581lo": 4057, "\u2581duyuyorum": 4058, "\u2581followed": 4059, "\u2581writing": 4060, "\u2581sessiz": 4061, "\u2581kendim": 4062, "\u2581s\u00f6yleyecek": 4063, "lt": 4064, "\u2581zeki": 4065, "\u2581Jackson": 4066, "\u2581ki\u015filer": 4067, "\u2581deniz": 4068, "\u2581closed": 4069, "\u2581fired": 4070, "\u2581Forget": 4071, "\u2581Pat": 4072, "\u2581Susan": 4073, "\u2581de\u011ferli": 4074, "\u2581mo": 4075, "\u2581Ac\u0131": 4076, "\u2581insan\u0131n": 4077, "\u2581absolutely": 4078, "\u2581Long": 4079, "\u2581yaratt\u0131": 4080, "\u2581stole": 4081, "\u2581pictures": 4082, "ight": 4083, "\u2581site": 4084, "cha": 4085, "\u2581push": 4086, "ence": 4087, "\u2581surprised": 4088, "\u2581\u00c7": 4089, "\u2581summer": 4090, "\u2581D\u0131\u015far\u0131": 4091, "\u2581Jean": 4092, "\u2581elbise": 4093, "\u2581kapal\u0131": 4094, "\u2581health": 4095, "ud": 4096, "field": 4097, "zo": 4098, "\u2581military": 4099, "d\u0131\u011f\u0131n": 4100, "\u2581race": 4101, "\u2581Ten": 4102, "\u2581\u00e7al": 4103, "\u2581Bilmem": 4104, "\u2581Zor": 4105, "\u2581bathroom": 4106, "\u2581d\u00fc\u015ft\u00fc": 4107, "\u2581warn": 4108, "\u2581Serb": 4109, "\u2581super": 4110, "\u2581Sch": 4111, "\u2581jump": 4112, "\u2581twice": 4113, "\u2581purpose": 4114, "\u2581al\u0131yorum": 4115, "\u2581Aferin": 4116, "\u2581orders": 4117, "\u2581trial": 4118, "ju": 4119, "\u2581master": 4120, "\u2581Ad\u0131m": 4121, "\u2581\u00e7\u0131kart": 4122, "ino": 4123, "\u2581annesi": 4124, "\u2581ba\u015f\u0131nda": 4125, "\u2581mate": 4126, "\u2581ilgisi": 4127, "\u2581Sun": 4128, "\u2581g\u00f6stermek": 4129, "ban": 4130, "lly": 4131, "\u2581spoke": 4132, "\u2581yapmad\u0131m": 4133, "\u2581Lieutenant": 4134, "\u2581hoping": 4135, "\u2581ba\u015fl\u0131yor": 4136, "\u2581gelebilir": 4137, "Ha": 4138, "\u2581Another": 4139, "\u2581rapor": 4140, "\u2581Bel": 4141, "ara": 4142, "\u2581Sara": 4143, "\u2581Za": 4144, "11": 4145, "\u2581dare": 4146, "\u2581ya\u015fa": 4147, "\u2581Run": 4148, "\u2581Yep": 4149, "\u2581ili\u015fki": 4150, "\u2581g\u00f6r": 4151, "\u2581glass": 4152, "\u2581Tri": 4153, "\u2581speaking": 4154, "\u2581Exactly": 4155, "\u2581ya\u015fama": 4156, "\u2581yerin": 4157, "\u2581kurtul": 4158, "\u2581duymak": 4159, "\u2581Far": 4160, "\u2581Cho": 4161, "\u2581ya\u015famak": 4162, "Re": 4163, "\u2581500": 4164, "\u2581\u00c7ek": 4165, "\u2581Alright": 4166, "\u2581s\u00f6z\u00fc": 4167, "\u2581Aren": 4168, "\u2581sorunu": 4169, "\u2581bigger": 4170, "\u2581played": 4171, "\u2581olurum": 4172, "ise": 4173, "\u2581olmas\u0131na": 4174, "\u2581b\u0131rak\u0131p": 4175, "\u2581kad\u0131n\u0131": 4176, "\u2581advice": 4177, "dar": 4178, "t\u0131k": 4179, "\u2581Dude": 4180, "\u2581leg": 4181, "\u2581etmeyin": 4182, "Sen": 4183, "\u2581medical": 4184, "\u2581village": 4185, "\u2581acil": 4186, "\u2581ileti\u015fim": 4187, "\u2581Kuzey": 4188, "\u2581g\u00f6rm\u00fc\u015f": 4189, "8": 4190, "\u2581yoluna": 4191, "\u2581seriously": 4192, "\u2581locked": 4193, "ier": 4194, "\u2581Hayat": 4195, "IN": 4196, "tif": 4197, "ER": 4198, "mi\u015ftim": 4199, "\u2581tan\u0131yorum": 4200, "\u2581Kimin": 4201, "mdan": 4202, "meyi": 4203, "\u2581immediately": 4204, "\u2581create": 4205, "\u2581verilen": 4206, "\u2581g\u00fcne\u015f": 4207, "nca": 4208, "\u2581ederiz": 4209, "\u2581dik": 4210, "\u2581States": 4211, "\u2581b\u00f6lge": 4212, "\u2581Guys": 4213, "\u2581animals": 4214, "\u2581ard\u0131ndan": 4215, "\u2581seemed": 4216, "\u2581rain": 4217, "\u2581toplant\u0131": 4218, "\u2581guard": 4219, "\u2581flight": 4220, "ps": 4221, "\u2581istiyorlar": 4222, "\u2581responsible": 4223, "\u2581asker": 4224, "\u2581aware": 4225, "\u2581y\u00fczde": 4226, "\u2581seek": 4227, "\u2581bomb": 4228, "\u2581inanma": 4229, "\u2581i\u011fren\u00e7": 4230, "\u2581m\u00fc\u015fteri": 4231, "\u2581grab": 4232, "\u2581memory": 4233, "\u2581several": 4234, "\u2581arms": 4235, "\u2581deny": 4236, "\u2581suspect": 4237, "par": 4238, "\u2581However": 4239, "\u2581kur": 4240, "ub": 4241, "\u2581Mor": 4242, "\u2581dreams": 4243, "\u2581k\u0131rm\u0131z\u0131": 4244, "\u2581Oda": 4245, "\u2581major": 4246, "\u2581allow": 4247, "\u2581G\u00fcle": 4248, "\u2581burn": 4249, "\u2581hamile": 4250, "\u2581Fazla": 4251, "50": 4252, "\u2581Je": 4253, "\u2581hiding": 4254, "\u2581kick": 4255, "\u2581soy": 4256, "\u2581me\u015fgul": 4257, "\u2581Wa": 4258, "\u2581hadn": 4259, "ildi": 4260, "miyorum": 4261, "\u2581vermi\u015f": 4262, "\u2581prepared": 4263, "\u2581Smith": 4264, "\u2581salak": 4265, "\u2581Joey": 4266, "ther": 4267, "\u2581language": 4268, "\u2581Kafa": 4269, "\u2581Do\u011frusu": 4270, "\u00c7": 4271, "\u2581seksi": 4272, "\u2581Va": 4273, "\u2581Sol": 4274, "\u2581truly": 4275, "\u2581va": 4276, "\u2581suit": 4277, "\u2581...\"": 4278, "har": 4279, "\u2581radio": 4280, "\u2581in\u015fa": 4281, "\u2581Ross": 4282, "\u2581\u00e7al\u0131\u015fmak": 4283, "\u2581ho": 4284, "\u2581numbers": 4285, "\u2581nedenle": 4286, "\u2581proof": 4287, "ay": 4288, "\u2581Es": 4289, "\u2581weekend": 4290, "\u2581sol": 4291, "Al": 4292, "\u2581Deli": 4293, "\u2581Bilirsin": 4294, "\u2581\u2039\u2039": 4295, "oh": 4296, "\u2581geleni": 4297, "\u2581G\u00f6z": 4298, "\u2581Lucy": 4299, "\u2581e\u011fitim": 4300, "\u2581kimseyi": 4301, "\u2581isterdim": 4302, "\u2581hello": 4303, "\u2581treat": 4304, "\u2581kendime": 4305, "\u2581iz": 4306, "\u2581idi": 4307, "\u2581closer": 4308, "\u2581Mu": 4309, "\u2581conversation": 4310, "\u2581Sabah": 4311, "\u2581bay\u0131m": 4312, "\u2581deserve": 4313, "\u2581con": 4314, "\u2581London": 4315, "\u2581view": 4316, "\u2581d\u00f6n\u00fcp": 4317, "\u2581nervous": 4318, "\u2581arrived": 4319, "\u2581lay": 4320, "\u2581Joseph": 4321, "\u2581shows": 4322, "\u2581Doesn": 4323, "tter": 4324, "\u2581ho\u015fuma": 4325, "\u2581Alt\u0131": 4326, "\u2581Cidden": 4327, "\u2581g\u00f6sterir": 4328, "\u2581\u015feker": 4329, "\u2581wondering": 4330, "\u2581IN": 4331, "asyon": 4332, "\u0131r\u0131m": 4333, "\u2581alt\u0131n": 4334, "\u2581getirdi": 4335, "\u2581sarho\u015f": 4336, "\u2581yaz\u0131yor": 4337, "\u2581biliyorsunuz": 4338, "\u2581buydu": 4339, "bye": 4340, "\u2581weapons": 4341, "\u2581Mel": 4342, "\u2581Nathan": 4343, "\u2581bother": 4344, "\u2581T\u0131pk\u0131": 4345, "\u2581\u00f6zellikle": 4346, "20": 4347, "\u2581Green": 4348, "\u2581Top": 4349, "\u2581\u0130ngilizce": 4350, "\u2581tutun": 4351, "\u2581Kelly": 4352, "\u2581Dikkatli": 4353, "\u2581received": 4354, "\u2581bal\u0131k": 4355, "\u2581angels": 4356, "\u2581raised": 4357, "\u2581according": 4358, "\u2581\u00d6l\u00fcm": 4359, "\u2581Young": 4360, "ite": 4361, "\u2581gotten": 4362, "\u2581sigara": 4363, "\u2581necessary": 4364, "\u2581empty": 4365, "\u2581nose": 4366, "\u2581everywhere": 4367, "\u2581strength": 4368, "\u2581dirty": 4369, "uk": 4370, "\u2581countries": 4371, "\u2581orospu": 4372, "\u2581Israel": 4373, "\u2581main": 4374, "\u2581mant\u0131kl\u0131": 4375, "zer": 4376, "\u2581grand": 4377, "\u2581bask\u0131": 4378, "\u2581Abby": 4379, "ez": 4380, "\u2581nature": 4381, "\u2581goddamn": 4382, "\u2581tak\u0131m\u0131": 4383, "dra": 4384, "\u2581iyice": 4385, "Hey": 4386, "\u2581Ter": 4387, "\u2581Pri": 4388, "that": 4389, "\u2581rahmet": 4390, "\u2581mesele": 4391, "\u2581hat\u0131rla": 4392, "\u2581Doug": 4393, "\u2581Hepsini": 4394, "\u2581cennet": 4395, "\u2581arad\u0131": 4396, "\u2581battle": 4397, "\u2581yap\u0131": 4398, "ss": 4399, "\u2581Papa": 4400, "\u2581zorunday\u0131z": 4401, "\u2581\u00e7evir": 4402, "rd": 4403, "\u2581Ku": 4404, "\u2581lock": 4405, "\u2581powerful": 4406, "\u2581deneme": 4407, "\u2581\u015f\u00fcpheli": 4408, "\u2581yan\u0131mda": 4409, "well": 4410, "ance": 4411, "\u2581halinde": 4412, "\u2581opportunity": 4413, "19": 4414, "av": 4415, "\u2581Hy": 4416, "\u2581ge\u00e7iyor": 4417, "\u2581le": 4418, "\u2581konu\u015fuyor": 4419, "\u2581North": 4420, "ville": 4421, "\u2581a\u00e7\u0131klama": 4422, "\u2581gelmez": 4423, "\u2581sold": 4424, "\u2581guidance": 4425, "\u2581ayr\u0131l": 4426, "\u2581ki\u015fisel": 4427, "io": 4428, "\u2581belongs": 4429, "\u2581whoa": 4430, "\u2581anlam\u0131yorum": 4431, "\u2581hakl\u0131s\u0131n": 4432, "\u2581Yan": 4433, "\u2581Rah": 4434, "\u2581ilgi": 4435, "\u2581arkas\u0131nda": 4436, "\u2581dal": 4437, "That": 4438, "ebilecek": 4439, "\u2581s\u0131n\u0131f": 4440, "tel": 4441, "\u2581oyunu": 4442, "Ya": 4443, "\u2581rule": 4444, "\u2581kahraman": 4445, "\u2581zamana": 4446, "\u2581apa\u00e7\u0131k": 4447, "\u2581ediyorlar": 4448, "\u2581legs": 4449, "\u2581do\u011fal": 4450, "\u2581vi": 4451, "\u2581s\u00f6yleyin": 4452, "\u2581y\u0131llar": 4453, "\u2581knowing": 4454, "\u2581Buradaki": 4455, "\u2581gitti\u011fini": 4456, "\u2581ABD": 4457, "\u2581f\u0131rsat": 4458, "\u2581matters": 4459, "\u2581dayan": 4460, "\u2581\u015f\u00fcphesiz": 4461, "\u2581hedef": 4462, "hu": 4463, "\u2581adamla": 4464, "\u2581square": 4465, "\u2581Tur": 4466, "\u2581beyond": 4467, "\u2581walked": 4468, "\u2581yar\u0131": 4469, "\u2581Par": 4470, "\u2581belong": 4471, "\u0131lacak": 4472, "\u2581cehennem": 4473, "\u2581etmiyor": 4474, "\u2581muydun": 4475, "\u2581ba\u015fa": 4476, "\u2581kat\u0131": 4477, "\u2581laugh": 4478, "\u2581dost": 4479, "\u2581\u00c7in": 4480, "\u2581fresh": 4481, "\u2581Che": 4482, "\u2581han\u0131mefendi": 4483, "\u2581oldu\u011funuzu": 4484, "\u2581ak\u0131l": 4485, "ating": 4486, "\u2581hero": 4487, "\u2581pizza": 4488, "\u2581acting": 4489, "\u2581G\u00fcney": 4490, "\u2581post": 4491, "\u2581sa": 4492, "\u2581sahte": 4493, "\u2581Konu\u015f": 4494, "\u2581lab": 4495, "\u2581credit": 4496, "\u2581iptal": 4497, "\u2581losing": 4498, "\u2581keeps": 4499, "\u2581ismi": 4500, "\u2581edilmi\u015f": 4501, "\u2581karde\u015fi": 4502, "tes": 4503, "\u2581bo": 4504, "\u2581pulled": 4505, "\u2581Men": 4506, "\u2581project": 4507, "\u0131r\u0131z": 4508, "My": 4509, "\u2581Y\u00fczba\u015f\u0131": 4510, "\u2581ki\u015fiyi": 4511, "\u2581Sevgili": 4512, "\u2581righteous": 4513, "\u2581ya\u011fmur": 4514, "9": 4515, "\u2581oy": 4516, "\u2581kitchen": 4517, "\u2581lied": 4518, "\u2581warm": 4519, "ans": 4520, "\u2581anlatma": 4521, "\u2581ila\u00e7": 4522, "\u2581\u00fcyesi": 4523, "\u2581research": 4524, "sey": 4525, "q": 4526, "\u2581obviously": 4527, "\u2581masa": 4528, "\u2581uncle": 4529, "\u2581Herhangi": 4530, "\u2581crying": 4531, "\u2581justice": 4532, "\u2581istedi\u011fimi": 4533, "\u2581inan\u0131yorum": 4534, "\u2581kon": 4535, "\u2581edersin": 4536, "\u2581Ee": 4537, "\u2581Morgan": 4538, "\u2581ihtiya\u00e7": 4539, "ning": 4540, "\u2581getirin": 4541, "\u2581Hani": 4542, "\u2581k\u00f6t\u00fcl\u00fck": 4543, "\u2581\u00e7izgi": 4544, "\u2581net": 4545, "\u2581Bro": 4546, "\u2581b\u0131rakt\u0131": 4547, "\u2581returned": 4548, "\u2581Jen": 4549, "\u2581s\u00fcper": 4550, "\u2581captain": 4551, "\u2581Except": 4552, "\u2581umurumda": 4553, "\u2581ba\u015fkan\u0131": 4554, "\u2581olmu\u015ftu": 4555, "\u2581z": 4556, "\u2581gemi": 4557, "lie": 4558, "\u2581investigation": 4559, "\u2581k\u00f6r": 4560, "\u2581\u00f6yleyse": 4561, "\u2581Bunlar\u0131n": 4562, "\u2581kals\u0131n": 4563, "rick": 4564, "\u2581crew": 4565, "\u2581silah\u0131": 4566, "t\u0131n": 4567, "\u2581Olay": 4568, "\u2581Angeles": 4569, "\u2581As\u0131l": 4570, "\u2581upstairs": 4571, "\u2581g\u00f6rd\u00fc": 4572, "di\u011fim": 4573, "\u2581bo\u015fa": 4574, "\u2581\u00d6zellikle": 4575, "\u2581Kay": 4576, "\u2581Shall": 4577, "\u2581simply": 4578, "\u2581Helen": 4579, "\u2581bay": 4580, "30": 4581, "\u2581tatil": 4582, "\u2581Londra": 4583, "\u2581Anlad\u0131n": 4584, "\u2581aptalca": 4585, "\u25812,": 4586, "\u2581s\u00fcredir": 4587, "\u2581Know": 4588, "\u2581danger": 4589, "\u2581religion": 4590, "mesini": 4591, "\u2581issue": 4592, "ice": 4593, "\u2581Tamamen": 4594, "0": 4595, "am\u0131yorum": 4596, "\u2581Olduk\u00e7a": 4597, "X": 4598, "\u2581hari\u00e7": 4599, "\u2581Jones": 4600, "\u2581Beyaz": 4601, "\u2581yar\u0131s\u0131": 4602, "\u2581Dedi": 4603, "\u2581member": 4604, "d\u0131\u011f\u0131m\u0131z": 4605, "\u2581ar\u0131yorum": 4606, "\u2581gerekirse": 4607, "mail": 4608, "So": 4609, "\u2581d\u00f6n\u00fc\u015f": 4610, "\u2581verily": 4611, "\u2581natural": 4612, "\u00fcz": 4613, "\u2581umut": 4614, "\u2581Kalk": 4615, "\u2581olabilirsin": 4616, "\u2581animal": 4617, "\u2581say\u0131lmaz": 4618, "ass": 4619, "larsa": 4620, "\u2581Had": 4621, "\u2581band": 4622, "\u2581hesap": 4623, "\u2581getirir": 4624, "lanma": 4625, "\u2581Onlardan": 4626, "\u2581ederler": 4627, "\u2581agent": 4628, "\u2581vazge\u00e7": 4629, "\u2581Evde": 4630, "\u2581van": 4631, "m\u0131yorsun": 4632, "l\u0131\u011f\u0131n": 4633, "acakt\u0131r": 4634, "\u2581g\u00f6nderdi": 4635, "\u2581\u00fcst\u00fcn": 4636, "\u2581geni\u015f": 4637, "\u2581olabilece\u011fini": 4638, "\u2581\u015farap": 4639, "\u2581uyu": 4640, "\u2581Ti": 4641, "\u2581adamlar\u0131": 4642, "\u2581anlad\u0131n": 4643, "\u2581Kap\u0131y\u0131": 4644, "\u2581cup": 4645, "\u2581G\u00fcvenlik": 4646, "but": 4647, "\u2581Bre": 4648, "\u2581Rick": 4649, "\u2581asshole": 4650, "):": 4651, "mez": 4652, "\u2581kurtarmak": 4653, "\u2581Street": 4654, "\u2581fazlas\u0131n\u0131": 4655, "\u2581tepki": 4656, "\u2581Lady": 4657, "\u2581Josh": 4658, "\u2581\u015eef": 4659, "\u2581tanr\u0131": 4660, "\u2581yatak": 4661, "\u258127": 4662, "\u2581Besides": 4663, "\u2581inan\u0131yor": 4664, "Rab": 4665, "\u2581client": 4666, "\u2581Sounds": 4667, "\u2581Hank": 4668, "\u2581draw": 4669, "12": 4670, "\u2581\u00f6\u011f\u00fct": 4671, "\u2581clearly": 4672, "\u2581therein": 4673, "\u2581Jacob": 4674, "\u2581asleep": 4675, "\u2581\u00e7ekici": 4676, "tro": 4677, "ris": 4678, "\u2581opened": 4679, "\u2581Ex": 4680, "\u2581i\u015fimiz": 4681, "\u2581caused": 4682, "\u2581mankind": 4683, "d\u0131klar\u0131": 4684, "\u2581uzakta": 4685, "\u2581\u0130kimiz": 4686, "\u2581bar\u0131\u015f": 4687, "\u2581likely": 4688, "\u2581former": 4689, "\u2581guns": 4690, "\u2581Hayat\u0131m": 4691, "\u2581Chicago": 4692, "\u2581Zi": 4693, "\u2581ak\u0131ll\u0131": 4694, "\u2581\u00f6z": 4695, "\u2581topla": 4696, "\u2581y\u00fcr\u00fc": 4697, "\u2581yar\u0131m": 4698, "\u2581Fred": 4699, "\u2581None": 4700, "\u2581Taylor": 4701, "\u2581s\u00f6ylediler": 4702, "\u2581members": 4703, "\u2581Tan": 4704, "\u2581ay\u0131r": 4705, "\u2581\u0130nsanlar\u0131n": 4706, "y\u00fc": 4707, "\u2581suddenly": 4708, "li\u011fin": 4709, "\u2581breath": 4710, "yd\u0131m": 4711, "\u2581g\u00f6sterdi": 4712, "\u2581olmuyor": 4713, "\u2581pray": 4714, "\u2581Ce": 4715, "\u2581endi\u015fe": 4716, "\u2581anti": 4717, "\u2581desire": 4718, "\u2581Julia": 4719, "\u2581Howard": 4720, "\u2581pe\u015finde": 4721, "\u2581planning": 4722, "\u2581Karen": 4723, "\u2581Probably": 4724, "top": 4725, "\u2581Ze": 4726, "\u2581career": 4727, "\u2581kedi": 4728, "\u2581kilo": 4729, "\u2581Arka": 4730, "\u2581tight": 4731, "\u2581leaves": 4732, "\u2581term": 4733, "\u2581shooting": 4734, "\u2581idare": 4735, "\u2581greatest": 4736, "\u2581Ask": 4737, "\u2581political": 4738, "\u2581yaz\u0131": 4739, "\u2581istersin": 4740, "mize": 4741, "muz": 4742, "\u2581Pe": 4743, "\u258180": 4744, "\u2581tas": 4745, "\u2581nokta": 4746, "lar\u0131n\u0131z": 4747, "\u2581High": 4748, "\u2581okula": 4749, "\u2581\u0130ngiliz": 4750, "\u2581Maggie": 4751, "\u2581murdered": 4752, "\u2581feed": 4753, "lay\u0131p": 4754, "\u2581Jenny": 4755, "\u2581sub": 4756, "\u2581sanm\u0131\u015ft\u0131m": 4757, "\u2581condition": 4758, "\u2581Parti": 4759, "\u2581Bebek": 4760, "\u2581y\u0131ld\u0131z": 4761, "\u2581daire": 4762, "\u2581Bri": 4763, "\u2581Oyun": 4764, "\u2581Sahi": 4765, "\u2581yasak": 4766, "\u2581knife": 4767, "\u2581liste": 4768, "\u2581ba\u011f\u0131\u015fla": 4769, "\u2581especially": 4770, "\u2581stage": 4771, "\u2581O\u011flum": 4772, "\u2581filmi": 4773, "\u2581tur": 4774, "pos": 4775, "\u2581ka\u00e7t\u0131": 4776, "\u2581Albay": 4777, "\u2581Hang": 4778, "\u2581u\u00e7": 4779, "\u2581prayer": 4780, "ebilirim": 4781, "\u2581cehenneme": 4782, "\u2581apologize": 4783, "\u2581including": 4784, "\u2581island": 4785, "\u2581ruh": 4786, "\u2581Bas": 4787, "\u2581stars": 4788, "\u2581stories": 4789, "\u2581IS": 4790, "\u2581bottle": 4791, "\u2581gelme": 4792, "\u2581Europe": 4793, "\u2581speed": 4794, "\u2581mektup": 4795, "\u2581Ber": 4796, "\u2581yat": 4797, "\u2581ederek": 4798, "\u2581erkekler": 4799, "\u2581weight": 4800, "\u2581heavy": 4801, "\u2581okuma": 4802, "\u2581pis": 4803, "\u2581firm": 4804, "\u2581Sizinle": 4805, "\u2581keys": 4806, "\u2581tutmak": 4807, "\u2581sa\u00e7": 4808, "\u2581survive": 4809, "AL": 4810, "\u2581foto\u011fraf": 4811, "\u2581Four": 4812, "\u2581edebilirim": 4813, "\u2581elini": 4814, "\u2581miydin": 4815, "\u2581de\u011fildim": 4816, "\u2581k\u0131zg\u0131n": 4817, "ura": 4818, "Mu": 4819, "\u2581Yet": 4820, "\u2581breakfast": 4821, "ized": 4822, "\u2581base": 4823, "\u2581Lily": 4824, "-1": 4825, "\u2581German": 4826, "tte": 4827, "\u2581\u00fcnl\u00fc": 4828, "\u2581m\u0131y\u0131z": 4829, "\u0131ndan": 4830, "\u2581practice": 4831, "\u2581ba\u015far\u0131": 4832, "\u2581yalanc\u0131": 4833, "\u2581bloody": 4834, "\u2581bilmiyorsun": 4835, "\u2581prefer": 4836, "\u2581plus": 4837, "\u2581kadar\u0131yla": 4838, "\u2581East": 4839, "\u2581ba\u015flar": 4840, "\u2581edilen": 4841, "\u2581G\u00fcne\u015f": 4842, "emezsin": 4843, "nny": 4844, "\u2581ridiculous": 4845, "\u2581bodies": 4846, "\u2581\u00e7ekme": 4847, "\u2581ay\u0131": 4848, "\u2581\u00fc\u00e7\u00fcnc\u00fc": 4849, "\u2581boya": 4850, "\u2581neyi": 4851, "\u2581topu": 4852, "\u2581\u00e7evre": 4853, "\u2581\u0130zin": 4854, "\u2581muyum": 4855, "\u2581s\u0131r": 4856, "\u2581ameliyat": 4857, "\u2581nation": 4858, "\u2581community": 4859, "\u2581Val": 4860, "\u2581Bra": 4861, "ford": 4862, "\u2581olsam": 4863, "\u2581social": 4864, "\u2581du": 4865, "\u2581Ready": 4866, "\u2581Neye": 4867, "ny": 4868, "berg": 4869, "\u2581Angel": 4870, "\u2581odas\u0131nda": 4871, "\u2581ta\u015f\u0131": 4872, "abiliyor": 4873, "\u2581ta\u015f\u0131n": 4874, "\u2581Mama": 4875, "\u2581oil": 4876, "\u2581temel": 4877, "\u2581\u00f6n\u00fcne": 4878, "\u2581yapt\u0131klar\u0131n\u0131": 4879, "\u2581etmem": 4880, "\u2581metal": 4881, "\u2581oldu\u011fumuz": 4882, "\u2581an\u0131": 4883, "\u2581Yaln\u0131zca": 4884, "ble": 4885, "\u2581alright": 4886, "\u2581G\u00f6k": 4887, "\u2581hayat\u0131n": 4888, "house": 4889, "\u2581suyu": 4890, "\u2581Cevap": 4891, "\u2581soru\u015fturma": 4892, "\u2581sons": 4893, "\u2581sa\u00e7mal\u0131k": 4894, "De": 4895, "\u2581veririm": 4896, "\u2581emri": 4897, "\u2581Santa": 4898, "\u2581300": 4899, "nizin": 4900, "k\u0131": 4901, "tti": 4902, "\u2581data": 4903, "\u2581girecek": 4904, "\u2581proje": 4905, "\u2581recognize": 4906, "\u2581US": 4907, "\u2581Plan": 4908, "\u2581Victor": 4909, "\u2581Colonel": 4910, "\u2581Fu": 4911, "II": 4912, "\u2581While": 4913, "\u2581agreed": 4914, "\u2581ortas\u0131nda": 4915, "\u2581\u00f6ld\u00fcrmeye": 4916, "\u2581heads": 4917, "sene": 4918, "mden": 4919, "\u2581Anlat": 4920, "\u2581travel": 4921, "abilirsiniz": 4922, "\u2581Fe": 4923, "\u2581etti\u011fim": 4924, "\u2581bro": 4925, "\u2581April": 4926, "ebiliriz": 4927, "\u2581bekleme": 4928, "\u2581checked": 4929, "\u2581e\u015fit": 4930, "\u2581Bey": 4931, "\u2581Verily": 4932, "\u2581v": 4933, "\u2581s\u00fcrpriz": 4934, "\u2581savunma": 4935, "\u2581Such": 4936, "\u2581bottom": 4937, "ita": 4938, "\u2581Col": 4939, "\u2581\u00f6nemi": 4940, "\u2581modern": 4941, "\u2581awful": 4942, "\u2581relax": 4943, "\u2581speech": 4944, "yacak": 4945, "\u2581Qu": 4946, "low": 4947, "ide": 4948, "Tamam": 4949, "\u2581river": 4950, "\u2581arrested": 4951, "\u2581d\u00fcnyaya": 4952, "\u2581zaman\u0131nda": 4953, "ors": 4954, "\u2581Ak\u015fam": 4955, "\u2581askeri": 4956, "\u2581g\u00f6r\u00fc\u015f": 4957, "\u2581i\u015ften": 4958, "\u2581Brown": 4959, "\u2581Ol": 4960, "\u2581konu\u015fabilir": 4961, "\u2581text": 4962, "\u2581bringing": 4963, "\u2581Sessiz": 4964, "\u2581dumb": 4965, "\u2581Roma": 4966, "\u2581Zavall\u0131": 4967, "\u2581France": 4968, "\u2581Trust": 4969, "\u2581brings": 4970, "\u2581d\u00fc\u015f\u00fcnce": 4971, "\u2581student": 4972, "\u2581hapse": 4973, "\u2581Neyin": 4974, "\u2581Until": 4975, "\u2581dahi": 4976, "lenmi\u015f": 4977, "\u2581alay\u0131m": 4978, "\u2581kendin": 4979, "\u2581iyiydi": 4980, "\u2581failed": 4981, "\u2581yap\u0131p": 4982, "\u2581realized": 4983, "\u2581Eskiden": 4984, "\u2581Bart": 4985, "\u2581According": 4986, "\u2581expected": 4987, "\u2581fill": 4988, "\u2581fahi\u015fe": 4989, "\u2581weak": 4990, "\u2581\u015fansl\u0131": 4991, "\u2581Goodbye": 4992, "\u2581dick": 4993, "ndeki": 4994, "\u2581edici": 4995, "\u2581sonu\u00e7": 4996, "\u2581devlet": 4997, "\u2581giy": 4998, "\u2581Turkey": 4999, "\u2581Konu": 5000, "\u2581bilmem": 5001, "\u2581pants": 5002, "\u2581spor": 5003, "lanan": 5004, "\u2581ak\u015famlar": 5005, "\u2581Hall": 5006, "\u2581Find": 5007, "\u2581older": 5008, "\u2581kendisini": 5009, "\u2581Elizabeth": 5010, "\u2581Julie": 5011, "\u2581State": 5012, "\u2581led": 5013, "\u2581lord": 5014, "\u2581training": 5015, "\u2581g\u00f6ren": 5016, "\u2581Better": 5017, "\u2581bullshit": 5018, "\u2581Ab": 5019, "\u2581Gary": 5020, "miyorsun": 5021, "y\u0131n": 5022, "\u00dc": 5023, "\u2581Pop": 5024, "\u2581Congratulations": 5025, "vat": 5026, "\u2581anl\u0131yor": 5027, "\u2581tape": 5028, "\u2581delil": 5029, "\u2581kavmi": 5030, "\u2581diyece\u011fim": 5031, "\u2581A\u00e7\u0131k": 5032, "\u2581total": 5033, "\u2581buradas\u0131n": 5034, "y\u0131p": 5035, "\u2581h\u00fccre": 5036, "ona": 5037, "\u2581Jackie": 5038, "\u2581bak\u0131\u015f": 5039, "\u2581ME": 5040, "\u2581awesome": 5041, "\u2581dropped": 5042, "\u2581izni": 5043, "\u2581canavar": 5044, "\u2581sevdi\u011fim": 5045, "\u2581Jesse": 5046, "\u2581camp": 5047, "\u2581buz": 5048, "\u2581property": 5049, "emez": 5050, "\u258128": 5051, "\u2581Hayatta": 5052, "\u2581corner": 5053, "\u258145": 5054, "\u2581Peygamber": 5055, "\u2581ya\u015f": 5056, "\u2581annen": 5057, "\u2581biliyordu": 5058, "\u2581emergency": 5059, "\u2581CIA": 5060, "\u2581zamandan": 5061, "\u2581Believe": 5062, "\u2581kuru": 5063, "\u2581imkans\u0131z": 5064, "\u2581evli": 5065, "\u2581receive": 5066, "\u2581Matthew": 5067, "\u2581Ser": 5068, "\u2581\u015feylerin": 5069, "\u2581herkese": 5070, "\u258190": 5071, "\u2581dokunma": 5072, "\u2581Barry": 5073, "\u2581discuss": 5074, "\u2581konu\u015fmaya": 5075, "\u2581vermeye": 5076, "\u0131l\u0131r": 5077, "\u2581Y\u00fcce": 5078, "\u2581Uyan": 5079, "\u2581sahne": 5080, "meyin": 5081, "\u2581\u0130\u015fin": 5082, "\u2581kutsal": 5083, "\u2581leader": 5084, "\u2581Gitme": 5085, "\u2581y\u00fcz\u00fcn\u00fc": 5086, "\u2581besides": 5087, "\u2581diledi\u011fin": 5088, "\u2581loss": 5089, "\u2581sinir": 5090, "\u2581merhaba": 5091, "\u2581epey": 5092, "\u2581s\u00f6yleyebilir": 5093, "\u2581yap\u0131n": 5094, "yal\u0131m": 5095, "\u2581D\u0131\u015far\u0131da": 5096, "\u2581Film": 5097, "\u2581kat\u0131nda": 5098, "\u2581umar\u0131m": 5099, "\u2581g\u00f6r\u00fc\u015fme": 5100, "\u2581liar": 5101, "\u2581Tra": 5102, "\u2581color": 5103, "dor": 5104, "\u2581tan\u0131\u015f": 5105, "li\u011fini": 5106, "\u2581Down": 5107, "\u2581fucked": 5108, "\u2581i\u015fine": 5109, "\u2581edece\u011fiz": 5110, "\u2581\u00e7\u0131karmak": 5111, "\u2581daddy": 5112, "\u2581Hol": 5113, "\u2581birth": 5114, "\u2581d\u00f6nmek": 5115, "\u2581cast": 5116, "ius": 5117, "\u2581Dalga": 5118, "\u2581Laura": 5119, "\u2581faces": 5120, "\u2581spread": 5121, "oo": 5122, "\u2581note": 5123, "\u2581yapt\u0131r": 5124, "\u2581$": 5125, "rak": 5126, "\u2581masum": 5127, "kal": 5128, "\u2581d\u00fczg\u00fcn": 5129, "\u2581Tebrikler": 5130, "\u2581driver": 5131, "\u2581itaat": 5132, "\u2581meat": 5133, "\u2581Kabul": 5134, "\u2581Seriously": 5135, "\u2581invited": 5136, "\u2581zorla": 5137, "LE": 5138, "\u2581\u00e7al\u0131\u015ft\u0131": 5139, "\u2581a\u00e7\u0131\u011f": 5140, "\u2581easier": 5141, "\u2581e\u011flence": 5142, "\u00fcyor": 5143, "\u2581karar\u0131": 5144, "\u2581Bat\u0131": 5145, "\u2581photo": 5146, "\u2581yerlerde": 5147, "\u2581d\u00fczelt": 5148, "layacak": 5149, "\u2581fellow": 5150, "\u2581shirt": 5151, "\u2581hik\u00e2ye": 5152, "\u2581konuyu": 5153, "ED": 5154, "\u2581olduklar\u0131": 5155, "\u2581alarm": 5156, "\u2581excited": 5157, "m\u0131\u015fs\u0131n": 5158, "\u2581ailesi": 5159, "\u2581Elimde": 5160, "\u2581oturup": 5161, "\u2581turning": 5162, "\u2581ideas": 5163, "\u2581ku\u015f": 5164, "\u2581Tahmin": 5165, "\u2581s\u00fcr": 5166, "\u2581i\u00e7indeki": 5167, "\u015fa": 5168, "\u2581Del": 5169, "\u2581Endi\u015felenme": 5170, "\u2581tutar": 5171, "\u2581\u015fans\u0131": 5172, "di\u011fimiz": 5173, "\u2581\u00e7\u0131kacak": 5174, "\u2581neye": 5175, "\u2581records": 5176, "\u2581herkesi": 5177, "\u2581cars": 5178, "\u2581ihanet": 5179, "anlar": 5180, "\u2581hanging": 5181, "\u2581Mukaddes": 5182, "\u2581saf": 5183, "\u2581u": 5184, "\u2581y\u0131ll\u0131k": 5185, "\u2581concerned": 5186, "\u2581Absolutely": 5187, "\u2581bird": 5188, "\u2581wild": 5189, "\u2581\u00f6\u011frenci": 5190, "\u2581fazlas\u0131": 5191, "dikleri": 5192, "\u2581s\u00f6ylemi\u015f": 5193, "\u2581science": 5194, "\u2581bekliyorum": 5195, "\u2581g\u00f6rd\u00fc\u011f\u00fcm": 5196, "\u2581yapman": 5197, "\u2581sonuna": 5198, "maktad\u0131r": 5199, "\u2581Life": 5200, "\u2581s\u00f6yleyen": 5201, "\u2581izi": 5202, "\u2581Rus": 5203, "\u2581takdir": 5204, "\u2581\u00f6zg\u00fcr": 5205, "How": 5206, "\u2581target": 5207, "\u2581biriydi": 5208, "\u2581Vegas": 5209, "\u2581beyin": 5210, "\u2581period": 5211, "ou": 5212, "\u2581Talk": 5213, "\u2581konu\u015ftum": 5214, "\u2581smile": 5215, "Be": 5216, "\u2581ara\u015ft\u0131r": 5217, "after": 5218, "\u2581ill": 5219, "\u2581buradaki": 5220, "\u2581Chloe": 5221, "\u2581birer": 5222, "\u2581\u00e7ay": 5223, "\u2581Beyler": 5224, "\u2581hissetme": 5225, "\u2581sevdim": 5226, "\u2581etmesi": 5227, "\u2581Bakal\u0131m": 5228, "val": 5229, "Biz": 5230, "\u2581noticed": 5231, "\u2581sorunun": 5232, "tz": 5233, "\u2581istedin": 5234, "\u2581\u00fczerinden": 5235, "lay\u0131n": 5236, "\u2581kaybettim": 5237, "\u2581Patrick": 5238, "\u2581d\u00fc\u011f\u00fcn": 5239, "\u2581based": 5240, "\u2581Gra": 5241, "cho": 5242, "\u2581Pu": 5243, "\u2581rol": 5244, "\u2581sistemi": 5245, "\u2581WHAT": 5246, "\u2581mavi": 5247, "\u2581\u00e7irkin": 5248, "\u2581\u015feylere": 5249, "\u2581ahbap": 5250, "\u2581dedektif": 5251, "\u2581teknoloji": 5252, "\u2581\u015fi\u015fe": 5253, "\u2581Unless": 5254, "\u2581bulmaya": 5255, "\u2581yapt\u0131\u011f\u0131m\u0131": 5256, "od": 5257, "\u2581ada": 5258, "\u2581k\u0131sm\u0131n\u0131": 5259, "pp": 5260, "\u2581non": 5261, "\u2581Bebe\u011fim": 5262, "\u2581al\u0131r\u0131m": 5263, "\u2581\u015fanslar": 5264, "\u2581bakmak": 5265, "\u2581yery\u00fcz\u00fcnde": 5266, "\u2581alay": 5267, "\u2581paying": 5268, "\u2581afford": 5269, "\u2581tecav\u00fcz": 5270, "\u25813,": 5271, "\u2581ar\u0131yorsun": 5272, "\u2581\u00c7o\u011fu": 5273, "\u2581Must": 5274, "\u2581Sunday": 5275, "\u2581folks": 5276, "\u2581yarat": 5277, "\u2581G\u00fcven": 5278, "\u2581kapa": 5279, "\u2581roll": 5280, "\u2581S\u00fcrekli": 5281, "tma": 5282, "\u2581iyisini": 5283, "\u2581games": 5284, "\u2581olmaktan": 5285, "\u2581Molly": 5286, "\u2581getirmek": 5287, "\u2581surgery": 5288, "\u2581Robin": 5289, "\u2581sev": 5290, "\u2581atma": 5291, "\u2581famous": 5292, "\u2581Police": 5293, "\u0131z\u0131": 5294, "\u2581national": 5295, "\u2581birinci": 5296, "\u2581ruin": 5297, "\u2581\u015feylerden": 5298, "\u0131lan": 5299, "\u2581Karde\u015fim": 5300, "\u2581heat": 5301, "\u2581alan\u0131": 5302, "\u2581u\u011fra\u015f": 5303, "\u2581Guess": 5304, "\u2581kart\u0131": 5305, "\u2581\u00e7": 5306, "\u2581insan\u0131": 5307, "\u2581yazar": 5308, "\u2581\u00e7\u0131k\u0131\u015f": 5309, "\u2581release": 5310, "\u2581kimsin": 5311, "\u2581Orta": 5312, "\u2581ended": 5313, "\u2581genel": 5314, "\u2581se\u00e7me": 5315, "\u2581add": 5316, "\u2581Ram": 5317, "\u2581vah": 5318, "\u2581girmek": 5319, "\u2581fake": 5320, "Why": 5321, "aca\u011f\u0131": 5322, "\u2581g\u00f6rmez": 5323, "\u2581seyahat": 5324, "\u2581stayed": 5325, "\u2581girme": 5326, "\u2581durun": 5327, "\u2581tan\u0131k": 5328, "\u2581adil": 5329, "\u2581focus": 5330, "\u2581therefore": 5331, "\u2581de\u011fi\u015fti": 5332, "\u2581taraf": 5333, "\u2581kimi": 5334, "inizi": 5335, "\u2581hook": 5336, "\u2581trick": 5337, "\u2581copy": 5338, "\u2581covered": 5339, "\u2581Friday": 5340, "Her": 5341, "\u2581universe": 5342, "\u2581WE": 5343, "\u2581al\u0131\u015f": 5344, "\u2581b\u0131rak\u0131r": 5345, "\u2581\u00e7\u00f6p": 5346, "\u2581devre": 5347, "\u2581b\u00f6l\u00fcm": 5348, "\u2581dil": 5349, "\u2581reached": 5350, "\u2581chicken": 5351, "yaca\u011f\u0131m": 5352, "\u2581Hareket": 5353, "\u2581halk\u0131": 5354, "If": 5355, "\u2581students": 5356, "\u2581geriye": 5357, "\u2581zavall\u0131": 5358, "\u2581olmasa": 5359, "\u2581karde\u015f": 5360, "\u2581\u00e7\u0131lg\u0131n": 5361, "iyoruz": 5362, "\u2581changes": 5363, "\u2581Gelecek": 5364, "\u2581servants": 5365, "ydim": 5366, "\u2581milk": 5367, "tion": 5368, "\u2581\u00f6d\u00fcl": 5369, "\u2581ge\u00e7irme": 5370, "with": 5371, "\u2581Satan": 5372, "\u2581robot": 5373, "\u2581hakk\u0131ndaki": 5374, "\u2581de\u011filler": 5375, "\u2581department": 5376, "\u2581Acaba": 5377, "ding": 5378, "\u2581g\u00fcnd\u00fcz": 5379, "\u2581Sus": 5380, "\u2581\u00e7\u00f6z\u00fcm": 5381, "\u2581demi\u015ftim": 5382, "\u2581fikrin": 5383, "l\u0131\u011f\u0131n\u0131": 5384, "com": 5385, "\u2581finding": 5386, "ket": 5387, "\u2581Greg": 5388, "\u2581ter": 5389, "\u2581plenty": 5390, "\u2581yumurta": 5391, "umuz": 5392, "\u2581pool": 5393, "\u2581d\u00fc\u015f": 5394, "\u2581Gelin": 5395, "\u2581olacakt\u0131": 5396, "\u2581Mum": 5397, "\u2581bir\u015feyler": 5398, "\u2581cook": 5399, "\u2581Gen\u00e7": 5400, "uh": 5401, "\u2581restaurant": 5402, "\u2581\u00e7ocuklar\u0131n": 5403, "\u2581yapay\u0131m": 5404, "\u2581ancient": 5405, "\u2581starts": 5406, "\u2581Ron": 5407, "ucu": 5408, "\u2581\u015e\u00f6yle": 5409, "\u2581Roy": 5410, "\u2581ad\u0131nda": 5411, "\u2581istemez": 5412, "\u2581Monday": 5413, "\u2581ba": 5414, "\u2581percent": 5415, "\u2581Q": 5416, "\u2581Roman": 5417, "\u2581Marie": 5418, "\u2581exist": 5419, "mektedir": 5420, "\u2581kar\u0131s\u0131": 5421, "\u2581sik": 5422, "\u2581sand\u0131m": 5423, "fu": 5424, "\u2581avoid": 5425, "\u2581Yapamam": 5426, "\u2581evin": 5427, "\u2581signal": 5428, "\u2581km": 5429, "ica": 5430, "\u2581s\u00f6ylemem": 5431, "\u2581w": 5432, "\u2581mar": 5433, "\u2581y\u00fck": 5434, "\u2581\u00e7anta": 5435, "\u2581Jay": 5436, "\u2581Hayal": 5437, "\u2581vote": 5438, "\u2581yapt\u0131\u011f\u0131m\u0131z": 5439, "\u2581Do\u011fu": 5440, "\u2581yeme": 5441, "\u2581Prophet": 5442, "\u2581center": 5443, "\u2581halt": 5444, "\u2581provide": 5445, "\u2581gelece\u011fim": 5446, "\u2581arad\u0131m": 5447, "\u2581d\u00fcnyay\u0131": 5448, "\u2581breathe": 5449, "\u2581g\u00fczeldi": 5450, "\u2581female": 5451, "\u2581suggest": 5452, "rate": 5453, "\u2581painful": 5454, "\u2581Sende": 5455, "\u2581sakla": 5456, "\u2581el\u00e7i": 5457, "\u2581kayna\u011f\u0131": 5458, "\u2581g\u00f6rme": 5459, "\u2581\u00f6\u011frendim": 5460, "\u2581Peder": 5461, "\u2581oku": 5462, "\u2581Sa\u011fol": 5463, "\u2581parts": 5464, "c\u0131lar": 5465, "\u2581football": 5466, "\u2581pop": 5467, "qui": 5468, "mal\u0131s\u0131n\u0131z": 5469, "\u2581teeth": 5470, "\u2581Muhammad": 5471, "\u2581ellerini": 5472, "\u2581\u0130kiniz": 5473, "\u2581\u00f6t\u00fcr\u00fc": 5474, "\u015fe": 5475, "ral": 5476, "\u2581favour": 5477, "\u2581olursun": 5478, "\u2581t\u0131pk\u0131": 5479, "\u2581\u00e7al\u0131\u015ft\u0131r": 5480, "\u2581letting": 5481, "\u2581pi\u00e7": 5482, "\u2581\u0130ngiltere": 5483, "\u2581Kesin": 5484, "\u2581yakala": 5485, "lay": 5486, "\u2581reform": 5487, "\u2581il": 5488, "\u2581opinion": 5489, "\u2581threw": 5490, "\u2581Abraham": 5491, "\u2581s\u0131k\u0131c\u0131": 5492, "\u2581gerekmiyor": 5493, "\u2581\u0130brahim": 5494, "war": 5495, "\u2581ar": 5496, "\u2581ye\u015fil": 5497, "\u2581Oliver": 5498, "zz": 5499, "\u2581Lou": 5500, "\u2581Herkesin": 5501, "\u2581ters": 5502, "\u2581cases": 5503, "\u2581torment": 5504, "\u2581d\u00f6nd\u00fcr": 5505, "\u2581nearly": 5506, "\u2581s\u00f6ylemeye": 5507, "\u2581s\u00fcrd\u00fc": 5508, "\u2581g\u00f6r\u00fcnt\u00fc": 5509, "\u2581onto": 5510, "\u2581shame": 5511, "\u2581Without": 5512, "\u2581deliver": 5513, "\u2581ya\u011f": 5514, "\u2581Madam": 5515, "\u2581correct": 5516, "\u2581lights": 5517, "\u2581responsibility": 5518, "\u2581ilgilen": 5519, "\u2581Kendisi": 5520, "\u2581value": 5521, "\u2581derken": 5522, "\u2581possibly": 5523, "\u2581kredi": 5524, "\u2581pal": 5525, "\u2581Doc": 5526, "\u2581pen": 5527, "\u2581Frans\u0131z": 5528, "\u2581Rock": 5529, "\u2581mentioned": 5530, "amay\u0131z": 5531, "\u2581tarihi": 5532, "\u2581g\u00f6rd\u00fcn\u00fcz": 5533, "\u2581operation": 5534, "\u2581\u00d6l\u00fc": 5535, "\u2581Masa": 5536, "\u2581yat\u0131r\u0131m": 5537, "di\u011fin": 5538, "\u2581statement": 5539, "\u2581ge\u00e7iyorsun": 5540, "\u2581Baby": 5541, "\u2581degil": 5542, "n\u00fc": 5543, "back": 5544, "\u2581sa\u011fl\u0131k": 5545, "ach": 5546, "\u2581shower": 5547, "\u2581Tha": 5548, "\u2581cake": 5549, "\u2581att\u0131": 5550, "\u2581Jess": 5551, "\u2581chair": 5552, "\u2581event": 5553, "\u2581dogs": 5554, "\u2581dry": 5555, "\u2581kart": 5556, "\u2581interview": 5557, "\u2581ba\u015ftan": 5558, "\u2581Enough": 5559, "\u2581Wi": 5560, "\u2581imza": 5561, "\u2581sey": 5562, "\u2581criminal": 5563, "\u2581Home": 5564, "\u2581ba\u011fla": 5565, "Me": 5566, "\u2581ayr\u0131lma": 5567, "\u2581d\u00fcz": 5568, "\u2581intihar": 5569, "\u2581lots": 5570, "\u2581\u0130\u00e7inde": 5571, "lu\u011fu": 5572, "\u2581yaparken": 5573, "ene": 5574, "\u2581Easy": 5575, "\u2581damage": 5576, "\u2581Tar": 5577, "sch": 5578, "what": 5579, "\u2581cinsel": 5580, "\u2581endi\u015felenme": 5581, "siyle": 5582, "ld": 5583, "\u2581Eva": 5584, "\u2581greater": 5585, "\u2581sweetheart": 5586, "ship": 5587, "\u2581ara\u00e7": 5588, "\u2581permission": 5589, "\u2581randevu": 5590, "\u2581kal\u0131r": 5591, "\u2581d\u00f6n\u00fcyor": 5592, "\u2581ba\u015flama": 5593, "\u2581\u00e7al\u0131\u015f\u0131yoruz": 5594, "\u2581s\u00f6ylemedin": 5595, "\u2581yapabiliriz": 5596, "To": 5597, "\u2581ge\u00e7er": 5598, "\u2581merkezi": 5599, "\u2581bor\u00e7": 5600, "\u2581s\u00f6ylemedim": 5601, "\u258170": 5602, "\u2581Amanda": 5603, "\u2581gaz": 5604, "\u2581T\u00fcrkiye": 5605, "\u2581Cooper": 5606, "\u2581Ko\u015f": 5607, "\u2581horrible": 5608, "\u2581s\u0131k\u0131nt\u0131": 5609, "\u2581meyve": 5610, "\u2581gibisin": 5611, "\u2581biggest": 5612, "\u2581Andrew": 5613, "\u2581Charlotte": 5614, "\u2581bey": 5615, "\u258126": 5616, "\u2581nesi": 5617, "\u0131n\u0131n": 5618, "\u2581alal\u0131m": 5619, "\u2581bakmay\u0131n": 5620, "\u2581Tomorrow": 5621, "our": 5622, "\u2581\u00d6n": 5623, "\u2581Kill": 5624, "\u2581Alman": 5625, "\u2581Tre": 5626, "klar\u0131": 5627, "\u2581dosya": 5628, "\u2581orta": 5629, "\u2581zamanki": 5630, "\u2581trade": 5631, "\u2581pure": 5632, "\u2581Both": 5633, "\u2581available": 5634, "\u2581yar\u0131\u015f": 5635, "\u2581pa": 5636, "\u2581legal": 5637, "\u2581desk": 5638, "\u2581sap\u0131k": 5639, "\u2581b\u0131rakt\u0131m": 5640, "\u2581mil": 5641, "d\u0131\u011f\u0131m\u0131": 5642, "\u2581\u015feyim": 5643, "\u2581heyecan": 5644, "\u2581Cool": 5645, "\u2581.\"": 5646, "\u2581ordu": 5647, "hal": 5648, "\u2581ba\u015f\u0131": 5649, "\u2581\u0130n": 5650, "\u2581A\u015fk": 5651, "\u2581Fransa": 5652, "\u2581Always": 5653, "\u2581bildi\u011fim": 5654, "\u2581ko": 5655, "\u2581signed": 5656, "\u2581s\u0131radan": 5657, "\u2581ears": 5658, "\u2581olmu\u015ftur": 5659, "AR": 5660, "\u2581pack": 5661, "\u2581tan\u0131": 5662, "lad\u0131": 5663, "\u2581d\u00fc\u015f\u00fck": 5664, "\u2581hisse": 5665, "\u2581\u00f6ylece": 5666, "\u2581pazar": 5667, "\u0131n\u0131z": 5668, "\u2581her\u015fey": 5669, "\u2581victims": 5670, "\u2581Hal": 5671, "\u2581pretend": 5672, "\u2581kafir": 5673, "\u2581diyorlar": 5674, "\u2581kayboldu": 5675, "\u2581UN": 5676, "\u2581ko\u015f": 5677, "\u2581kusur": 5678, "\u2581meselesi": 5679, "\u2581split": 5680, "ime": 5681, "\u2581Kap\u0131": 5682, "\u2581kal\u0131yor": 5683, "head": 5684, "\u2581flying": 5685, "\u00fck": 5686, "\u2581Sar": 5687, "\u2581DO": 5688, "\u2581G\u00fcn": 5689, "\u2581mucize": 5690, "\u2581yap\u0131yorlar": 5691, "\u2581roof": 5692, "\u2581soldiers": 5693, "\u2581es": 5694, "\u2581Chinese": 5695, "\u2581Te\u011fmen": 5696, "\u2581madde": 5697, "\u2581Donna": 5698, "\u2581Brad": 5699, "\u2581ought": 5700, "\u2581yak\u0131\u015f\u0131kl\u0131": 5701, "d\u0131lar": 5702, "\u2581assume": 5703, "\u2581tamir": 5704, "\u2581results": 5705, "\u2581babam\u0131n": 5706, "\u2581testi": 5707, "\u2581dig": 5708, "\u2581iste": 5709, "\u2581yahut": 5710, "\u2581pan": 5711, "abilece\u011fini": 5712, "\u2581Sta": 5713, "\u2581Hepiniz": 5714, "\u2581d\u00f6ner": 5715, "\u2581Kol": 5716, "In": 5717, "\u2581beg": 5718, "\u2581Linda": 5719, "\u2581Y\u00fcz": 5720, "\u2581bullet": 5721, "\u2581transfer": 5722, "\u2581domuz": 5723, "\u2581bucks": 5724, "\u2581k\u0131yamet": 5725, "\u2581Marcus": 5726, "\u2581humans": 5727, "\u2581\u00fczg\u00fcn": 5728, "\u2581gods": 5729, "\u2581pilot": 5730, "\u2581papers": 5731, "\u2581Nor": 5732, "\u2581numaras\u0131": 5733, "\u2581journey": 5734, "\u2581yapmam\u0131z": 5735, "\u2581freedom": 5736, "\u2581odada": 5737, "\u2581\u00d6ld\u00fcr": 5738, "car": 5739, "lia": 5740, "\u2581ra": 5741, "\u2581theory": 5742, "ee": 5743, "\u2581\u015funa": 5744, "\u2581baksana": 5745, "\u2581negative": 5746, "\u2581ge\u00e7in": 5747, "\u2581California": 5748, "\u2581getirme": 5749, "\u2581Mommy": 5750, "\u2581Bitti": 5751, "\u2581Baz\u0131lar\u0131": 5752, "\u2581comfortable": 5753, "\u2581insane": 5754, "\u2581strike": 5755, "\u2581role": 5756, "\u2581bas\u0131n": 5757, "\u2581yen": 5758, "\u2581paket": 5759, "\u2581korkuyorum": 5760, "ator": 5761, "\u2581Kahve": 5762, "\u2581kurtard\u0131": 5763, "lamak": 5764, "\u2581pardon": 5765, "\u2581Beth": 5766, "\u2581knock": 5767, "d\u0131\u011f\u0131nda": 5768, "gue": 5769, "\u2581Oras\u0131": 5770, "\u2581gelirse": 5771, "\u2581itibaren": 5772, "maktan": 5773, "\u2581authority": 5774, "\u2581Russian": 5775, "\u2581S\u00fcper": 5776, "\u2581kaba": 5777, "\u2581Silah": 5778, "nuz": 5779, "\u2581amount": 5780, "\u2581source": 5781, "\u2581kullar\u0131": 5782, "\u2581patlama": 5783, "\u2581Cole": 5784, "oz": 5785, "\u2581subject": 5786, "\u2581warning": 5787, "\u2581im": 5788, "\u2581loose": 5789, "\u2581izleri": 5790, "huh": 5791, "\u2581beach": 5792, "\u2581male": 5793, "\u2581verebilir": 5794, "\u2581dokun": 5795, "\u2581balls": 5796, "lerse": 5797, "\u2581arar\u0131m": 5798, "\u2581Stand": 5799, "\u2581Nu": 5800, "\u2581Morning": 5801, "\u2581Noah": 5802, "\u2581Vo": 5803, "\u2581bridge": 5804, "\u2581result": 5805, "\u2581ka\u00e7\u0131r": 5806, "\u2581positive": 5807, "\u2581Unut": 5808, "\u2581derecede": 5809, "\u2581s\u00f6yledi\u011fi": 5810, "e\u011fi": 5811, "\u2581bilmiyoruz": 5812, "\u2581ordered": 5813, "\u2581suicide": 5814, "\u2581cidden": 5815, "\u2581hidden": 5816, "\u2581girip": 5817, "\u2581saatte": 5818, "\u2581Again": 5819, "\u2581fan": 5820, "\u2581\u0130nan\u0131lmaz": 5821, "\u2581gidece\u011fiz": 5822, "\u2581Six": 5823, "\u2581Johnson": 5824, "\u2581Bir\u00e7ok": 5825, "\u2581Mer": 5826, "\u2581Euro": 5827, "\u2581a\u00e7\u0131n": 5828, "\u2581s\u00fcrer": 5829, "\u2581Aah": 5830, "\u2581Ever": 5831, "\u2581duyma": 5832, "seydi": 5833, "\u2581Tyler": 5834, "\u2581g\u00f6r\u00fcnce": 5835, "\u2581revelation": 5836, "\u2581sending": 5837, "\u2581hallederim": 5838, "\u2581Her\u015fey": 5839, "\u2581yapabilirsin": 5840, "nan": 5841, "\u2581cares": 5842, "\u2581s\u00f6ylemedi": 5843, "\u2581ediyordu": 5844, "\u2581Profes\u00f6r": 5845, "\u2581etmi\u015fti": 5846, "\u2581Although": 5847, "\u2581Patron": 5848, "\u2581points": 5849, "\u2581arabay\u0131": 5850, "\u2581b\u0131rakmak": 5851, "\u2581safety": 5852, "\u2581pieces": 5853, "\u2581g\u00fcl": 5854, "a\u011f\u0131": 5855, "\u2581grown": 5856, "\u2581dressed": 5857, "\u2581Aaron": 5858, "kov": 5859, "\u2581Bruce": 5860, "\u2581ince": 5861, "\u015fi": 5862, "\u2581cancer": 5863, "\u2581y\u00fcce": 5864, "\u2581yada": 5865, "\u2581Art": 5866, "\u2581manager": 5867, "\u2581flowers": 5868, "\u2581connection": 5869, "yor": 5870, "diler": 5871, "\u2581Afrika": 5872, "\u2581cream": 5873, "\u2581da\u011f\u0131t": 5874, "\u2581recently": 5875, "\u2581payla\u015f": 5876, "\u0131yordu": 5877, "\u2581Ci": 5878, "\u011fa": 5879, "\u2581ends": 5880, "\u2581konu\u015fmay\u0131": 5881, "\u2581Ger": 5882, "\u2581boyun": 5883, "AN": 5884, "\u2581yapaca\u011f\u0131n\u0131": 5885, "\u2581enemies": 5886, "\u2581de\u011filse": 5887, "\u2581Gemi": 5888, "\u2581Old": 5889, "\u2581north": 5890, "\u2581buray\u0131": 5891, "\u2581halk": 5892, "\u2581edemem": 5893, "\u2581monster": 5894, "\u2581Ham": 5895, "\u2581kar\u0131\u015f\u0131k": 5896, "\u2581hall": 5897, "\u2581considered": 5898, "\u2581hakim": 5899, "\u2581gibidir": 5900, "\u2581Angela": 5901, "\u2581kendileri": 5902, "m\u0131z\u0131n": 5903, "\u2581Merciful": 5904, "ft": 5905, "\u2581\u0130stedi\u011fin": 5906, "\u2581Tak": 5907, "\u2581Gus": 5908, "\u2581\u00f6lecek": 5909, "\u2581bulmu\u015f": 5910, "\u2581Kurt": 5911, "\u2581issues": 5912, "\u2581cards": 5913, "\u2581gelmi\u015fti": 5914, "\u2581Pretty": 5915, "\u2581kur\u015fun": 5916, "\u2581June": 5917, "port": 5918, "\u2581direction": 5919, "\u2581geldi\u011fi": 5920, "\u2581ilan": 5921, "\u2581girer": 5922, "\u2581mark": 5923, "\u2581shape": 5924, "\u2581yapaca\u011f\u0131m\u0131": 5925, "\u2581Thus": 5926, "\u2581bah\u00e7e": 5927, "\u2581mountains": 5928, "\u2581zulme": 5929, "\u2581bekleyin": 5930, "\u2581vurdu": 5931, "\u2581gelece\u011fini": 5932, "\u2581dinleyin": 5933, "\u2581treatment": 5934, "\u2581Nefes": 5935, "\u2581astray": 5936, "\u2581kay": 5937, "\u2581taraf\u0131nda": 5938, "\u2581cousin": 5939, "not": 5940, "\u2581breaking": 5941, "\u2581ho\u015fun": 5942, "\u2581polisi": 5943, "\u2581amca": 5944, "\u2581Many": 5945, "\u2581sevgilim": 5946, "\u2581Bin": 5947, "\u2581Professor": 5948, "\u2581Gir": 5949, "\u2581makine": 5950, "\u2581Mars": 5951, "\u2581Bilemiyorum": 5952, "\u2581tespit": 5953, "\u2581evlilik": 5954, "\u2581etraf\u0131nda": 5955, "\u2581finger": 5956, "\u2581tutma": 5957, "\u2581Carol": 5958, "vi\u00e7": 5959, "\u2581\u015fimdiye": 5960, "\u2581original": 5961, "\u2581\u00e7iz": 5962, "hir": 5963, "\u2581a\u00e7\u0131k\u00e7a": 5964, "\u2581daima": 5965, "leriniz": 5966, "\u2581discovered": 5967, "\u2581oldu\u011funuz": 5968, "\u2581Jin": 5969, "\u2581\u00e7ekin": 5970, "\u2581uyuyor": 5971, "\u2581d\u00f6necek": 5972, "mi\u015flerdi": 5973, "\u2581ayetleri": 5974, "\u2581opening": 5975, "\u2581hurts": 5976, "\u2581numaral\u0131": 5977, "\u2581k\u0131r\u0131kl\u0131\u011f\u0131na": 5978, "\u2581sorma": 5979, "giving": 5980, "\u2581uyar\u0131": 5981, "\u2581Vincent": 5982, "\u2581Yava\u015f": 5983, "\u2581beauty": 5984, "\u2581somehow": 5985, "\u2581federal": 5986, "\u2581evlenme": 5987, "\u2581Cut": 5988, "\u2581sonucu": 5989, "\u2581stolen": 5990, "\u2581birileri": 5991, "\u2581century": 5992, "\u2581yasa": 5993, "\u2581di\u015fi": 5994, "law": 5995, "\u2581devil": 5996, "\u2581Harvey": 5997, "\u2581Bizimle": 5998, "\u2581lines": 5999, "\u2581yap\u0131lm\u0131\u015f": 6000, "\u2581arac\u0131": 6001, "\u2581Yahudi": 6002, "\u2581Almanya": 6003, "\u2581Saturday": 6004, "\u2581ba\u015far": 6005, "\u2581i\u00e7eride": 6006, "\u2581\u00f6ld\u00fcrd\u00fcn": 6007, "\u2581Ladies": 6008, "nie": 6009, "\u2581Kontrol": 6010, "\u2581staff": 6011, "\u2581kaybetti": 6012, "\u2581baya\u011f\u0131": 6013, "\u2581ear": 6014, "\u2581Ban": 6015, "\u2581pi": 6016, "\u2581kullan\u0131yor": 6017, "\u2581agreement": 6018, "\u2581bulu\u015fma": 6019, "\u2581divorce": 6020, "\u2581Cinayet": 6021, "\u2581ayr\u0131ld\u0131": 6022, "\u2581plan\u0131": 6023, "\u2581paras\u0131n\u0131": 6024, "\u2581thoughts": 6025, "\u2581understanding": 6026, "\u2581however": 6027, "\u2581sormak": 6028, "\u2581mum": 6029, "\u2581faster": 6030, "\u2581Jordan": 6031, "\u2581Same": 6032, "\u2581Kas": 6033, "\u2581Ni\u00e7in": 6034, "\u03bf": 6035, "\u2581Majesty": 6036, "\u2581oras\u0131": 6037, "\u2581oturma": 6038, "\u2581Dick": 6039, "\u2581answers": 6040, "\u2581Muh": 6041, "\u2581University": 6042, "tty": 6043, "\u2581d\u00f6nme": 6044, "\u2581National": 6045, "\u2581oynamak": 6046, "\u2581evden": 6047, "\u2581topluluk": 6048, "\u2581Yeterince": 6049, "\u00fcc\u00fc": 6050, "\u2581binlerce": 6051, "\u2581obey": 6052, "\u2581Baksana": 6053, "\u2581sosyal": 6054, "\u2581international": 6055, "\u2581d\u0131\u015f": 6056, "\u2581fail": 6057, "\u2581Things": 6058, "\u2581dust": 6059, "\u2581slept": 6060, "\u2581hardly": 6061, "mit": 6062, "\u2581Aw": 6063, "\u2581Shh": 6064, "\u2581tuzak": 6065, "15": 6066, "\u2581HE": 6067, "\u2581disease": 6068, "\u2581odas\u0131na": 6069, "\u2581forced": 6070, "\u2581silly": 6071, "\u2581sins": 6072, "ring": 6073, "right": 6074, "\u2581success": 6075, "\u2581\u015eerif": 6076, "\u2581Germany": 6077, "\u2581showing": 6078, "hane": 6079, "pre": 6080, "bri": 6081, "\u2581Gizli": 6082, "\u2581sp": 6083, "\u2581forgiveness": 6084, "\u2581abi": 6085, "\u2581yaz\u0131l\u0131": 6086, "s\u00fc": 6087, "\u2581families": 6088, "\u2581terms": 6089, "\u2581onda": 6090, "\u2581Rahat": 6091, "\u2581mutluyum": 6092, "\u2581kokuyor": 6093, "\u2581Kapat": 6094, "\u2581Hitler": 6095, "\u2581g\u00f6steren": 6096, "\u2581merhamet": 6097, "\u2581Ya\u015fl\u0131": 6098, "ally": 6099, "\u2581ge\u00e7irmek": 6100, "\u2581character": 6101, "\u2581\u00d6": 6102, "\u2581Hope": 6103, "\u2581Shi": 6104, "\u2581d\u00f6nece\u011fim": 6105, "ktir": 6106, "\u2581\u00e7a\u011fr\u0131": 6107, "\u2581bahsetti": 6108, "\u2581olabilirdi": 6109, "lay\u0131c\u0131": 6110, "\u258135": 6111, "\u2581angel": 6112, "\u2581de\u011fi\u015ftirme": 6113, "\u2581h\u00fck\u00fcmet": 6114, "\u2581karde\u015fin": 6115, "ET": 6116, "\u2581Mesela": 6117, "\u2581chest": 6118, "\u2581a\u00e7t\u0131": 6119, "\u2581Lex": 6120, "\u2581familiar": 6121, "Ama": 6122, "\u2581\u015firketi": 6123, "\u2581t\u0131k": 6124, "\u2581gittin": 6125, "\u2581meaning": 6126, "Ka": 6127, "\u2581ceset": 6128, "\u2581mesaj\u0131": 6129, "\u2581b\u0131\u00e7ak": 6130, "\u2581sordu": 6131, "\u00d6": 6132, "\u2581cesaret": 6133, "eceksin": 6134, "mam": 6135, "\u2581temsil": 6136, "\u2581su\u00e7u": 6137, "\u2581FOR": 6138, "\u2581hayalet": 6139, "\u2581Acil": 6140, "\u2581B\u0131rak\u0131n": 6141, "\u2581Defol": 6142, "\u2581appointed": 6143, "\u2581felaket": 6144, "l\u0131yorum": 6145, "\u2581Shaw": 6146, "\u2581\u00f6ld\u00fcren": 6147, "\u2581yapmam\u0131": 6148, "\u2581yazma": 6149, "\u2581queen": 6150, "\u2581lately": 6151, "\u2581huzur": 6152, "\u2581dating": 6153, "\u2581movies": 6154, "\u2581reasons": 6155, "\u2581selling": 6156, "\u2581a\u00e7ma": 6157, "\u2581g\u00fcnl\u00fck": 6158, "\u2581\u00e7ekti": 6159, "\u2581forgotten": 6160, "\u2581Bad": 6161, "\u2581aram\u0131zda": 6162, "\u2581kaybetme": 6163, "vin": 6164, "\u2581baz\u0131lar\u0131": 6165, "ky": 6166, "mam\u0131z": 6167, "ecektir": 6168, "key": 6169, "\u2581al\u0131\u015fveri\u015f": 6170, "\u2581Tor": 6171, "\u2581sword": 6172, "\u2581parlak": 6173, "\u2581bunlardan": 6174, "imizi": 6175, "\u2581yapmaz": 6176, "\u2581Todd": 6177, "\u2581hissettim": 6178, "\u2581Firavun": 6179, "\u2581sok": 6180, "\u2581sweetie": 6181, "\u2581internet": 6182, "\u00fcm\u00fc": 6183, "\u2581dokuz": 6184, "\u2581Koca": 6185, "\u2581jealous": 6186, "\u2581Deniz": 6187, "\u2581karma\u015f\u0131k": 6188, "\u2581korkma": 6189, "ane": 6190, "\u2581Gri": 6191, "\u2581Tut": 6192, "\u2581solution": 6193, "\u2581buralarda": 6194, "\u2581bill": 6195, "\u2581g\u00f6zden": 6196, "\u2581suffer": 6197, "\u2581Calm": 6198, "\u2581diz": 6199, "\u2581kar\u0131n": 6200, "\u2581Ash": 6201, "\u2581\u00f6ld\u00fcrecek": 6202, "side": 6203, "\u2581Katie": 6204, "\u2581Also": 6205, "\u2581progress": 6206, "pan": 6207, "\u2581Muhte\u015fem": 6208, "\u2581Pazar": 6209, "\u2581fikri": 6210, "\u2581g\u00f6z\u00fck\u00fcyor": 6211, "\u2581sad\u0131k": 6212, "\u2581elinden": 6213, "cik": 6214, "\u2581Vince": 6215, "\u2581guest": 6216, "\u2581oynama": 6217, "\u2581Durum": 6218, "\u2581golf": 6219, "yecek": 6220, "down": 6221, "\u2581bilmez": 6222, "\u2581yakla\u015f": 6223, "mi\u015fsin": 6224, "\u2581\u015f\u00fck\u00fcr": 6225, "\u2581Dans": 6226, "\u2581sar": 6227, "Who": 6228, "\u2581\u00e7al\u0131\u015ft\u0131\u011f\u0131n\u0131": 6229, "OR": 6230, "\u2581paras\u0131": 6231, "\u2581birbirine": 6232, "\u2581ya\u015f\u0131ndaki": 6233, "\u2581say\u0131l\u0131r": 6234, "\u2581fe": 6235, "\u2581i\u015fbirli\u011fi": 6236, "\u2581Fo": 6237, "\u2581kazanmak": 6238, "\u2581trees": 6239, "\u2581isteme": 6240, "ece\u011fi": 6241, "\u2581sanat": 6242, "\u2581f\u0131rsat\u0131": 6243, "\u2581hali": 6244, "\u2581televizyon": 6245, "\u2581Amca": 6246, "\u2581Hill": 6247, "\u2581Sally": 6248, "\u2581nowhere": 6249, "\u2581siki": 6250, "\u2581\u00e7al\u0131\u015f\u0131yordu": 6251, "\u2581arkada\u015flar\u0131m": 6252, "ple": 6253, "dol": 6254, "\u0131nca": 6255, "\u2581aras\u0131": 6256, "\u2581map": 6257, "mis": 6258, "\u2581Fark": 6259, "\u2581fate": 6260, "\u2581grew": 6261, "\u2581su\u00e7lama": 6262, "\u2581Blue": 6263, "\u2581\u00e7al\u0131\u015f\u0131yordum": 6264, "\u2581ate": 6265, "mal\u0131": 6266, "\u2581Officer": 6267, "\u2581regular": 6268, "ists": 6269, "\u2581aray\u0131p": 6270, "\u2581Rebecca": 6271, "\u2581\u00fclkenin": 6272, "\u2581location": 6273, "acaks\u0131n\u0131z": 6274, "\u2581kol": 6275, "\u2581Oysa": 6276, "\u2581bat": 6277, "\u2581Air": 6278, "\u2581kilometre": 6279, "\u2581Chan": 6280, "\u2581toward": 6281, "\u2581Brother": 6282, "\u2581pasta": 6283, "\u2581i\u00e7erisinde": 6284, "\u2581i\u015fkence": 6285, "\u2581yeme\u011fe": 6286, "\u2581mahkum": 6287, "\u2581perfectly": 6288, "\u2581s\u00f6yledi\u011fini": 6289, "\u2581H\u0131r": 6290, "\u2581yard\u0131m\u0131": 6291, "\u2581Liz": 6292, "\u2581lt": 6293, "\u2581funeral": 6294, "lan\u0131yor": 6295, "\u2581g\u00f6r\u00fcr": 6296, "\u2581vereyim": 6297, "\u2581particular": 6298, "\u2581boyu": 6299, "\u2581mahkeme": 6300, "\u2581ticket": 6301, "\u2581thousands": 6302, "etti": 6303, "\u2581K\u0131sa": 6304, "\u2581barely": 6305, "\u2581secure": 6306, "\u2581wealth": 6307, "\u2581Nope": 6308, "\u2581kullanarak": 6309, "\u2581Babam\u0131n": 6310, "\u2581reality": 6311, "\u2581offered": 6312, "\u2581Lois": 6313, "\u2581Lucas": 6314, "\u2581D\u00fcnyan\u0131n": 6315, "\u2581flat": 6316, "\u2581bakan": 6317, "\u2581gu": 6318, "\u2581nuts": 6319, "gun": 6320, "\u2581kald\u0131k": 6321, "\u2581unbeliever": 6322, "\u2581Sonraki": 6323, "\u2581Ji": 6324, "\u2581meydana": 6325, "\u2581Haber": 6326, "\u2581Frankie": 6327, "\u2581\u015feydi": 6328, "\u2581Bat": 6329, "\u2581s\u00f6yledi\u011fin": 6330, "\u2581Hayat\u0131m\u0131": 6331, "\u2581medicine": 6332, "\u2581toplum": 6333, "\u2581Y\u00fcksek": 6334, "ag": 6335, "\u2581ghost": 6336, "\u2581li": 6337, "\u2581etmedi": 6338, "ari": 6339, "\u2581expecting": 6340, "\u2581benefit": 6341, "\u2581NO": 6342, "\u2581g\u00fcn\u00fcnde": 6343, "\u2581grateful": 6344, "\u2581season": 6345, "ious": 6346, "gg": 6347, "\u2581block": 6348, "\u2581\u00f6len": 6349, "nle": 6350, "\u2581player": 6351, "\u2581regret": 6352, "\u2581yorum": 6353, "\u2581\u00e7ekmek": 6354, "ping": 6355, "mun": 6356, "\u2581oluruz": 6357, "\u2581rica": 6358, "\u2581diyelim": 6359, "\u2581Miller": 6360, "\u2581threat": 6361, "\u2581yard\u0131ma": 6362, "\u2581teori": 6363, "\u2581Ann": 6364, "\u2581konu\u015fmam": 6365, "pro": 6366, "\u2581Catherine": 6367, "\u2581etki": 6368, "\u2581Mart": 6369, "\u2581Et": 6370, "\u2581complicated": 6371, "\u2581Yer": 6372, "\u2581Jessica": 6373, "\u2581cam": 6374, "ial": 6375, "\u2581south": 6376, "\u2581K\u0131rm\u0131z\u0131": 6377, "\u2581Wilson": 6378, "\u2581a\u015f": 6379, "\u2581grubu": 6380, "\u2581sa\u011flad\u0131": 6381, "\u2581yerle\u015ftir": 6382, "\u2581ba\u015fkas\u0131": 6383, "\u2581filled": 6384, "\u2581mountain": 6385, "rin": 6386, "\u2581image": 6387, "\u2581committed": 6388, "dis": 6389, "\u2581Kitab\u0131": 6390, "\u2581odas\u0131": 6391, "\u2581stone": 6392, "\u2581kar\u015f\u0131s\u0131nda": 6393, "\u2581kurtarma": 6394, "\u2581yapmas\u0131": 6395, "\u2581geride": 6396, "\u2581Dev": 6397, "\u2581\u00e7ekiyor": 6398, "\u2581anlatt\u0131": 6399, "\u2581ayakta": 6400, "\u2581elektrik": 6401, "\u2581\u00c7avu\u015f": 6402, "\u2581fought": 6403, "\u2581yo\u011fun": 6404, "\u2581tie": 6405, "\u2581released": 6406, "\u2581secrets": 6407, "\u2581tart\u0131\u015fma": 6408, "\u2581England": 6409, "row": 6410, "\u2581baylar": 6411, "\u2581effect": 6412, "\u2581Cu": 6413, "\u2581olunca": 6414, "\u2581\u015fef": 6415, "\u2581official": 6416, "k\u00e2": 6417, "\u2581Cat": 6418, "\u2581Korkar\u0131m": 6419, "\u2581ajan": 6420, "\u2581at\u0131\u015f": 6421, "\u2581di\u015f": 6422, "\u2581olman\u0131n": 6423, "\u2581\u00c7ekil": 6424, "\u2581Katil": 6425, "\u2581distance": 6426, "\u2581insanlarla": 6427, "\u2581technology": 6428, "\u2581heading": 6429, "\u2581g\u00fcnlerde": 6430, "\u2581houses": 6431, "\u2581\u00e7at\u0131": 6432, "\u2581kullanmak": 6433, "\u2581futbol": 6434, "amad\u0131m": 6435, "\u2581throat": 6436, "\u2581ihtimali": 6437, "\u2581buried": 6438, "\u2581filan": 6439, "\u2581Rob": 6440, "\u2581do\u011frusu": 6441, "\u2581taksi": 6442, "\u2581Komik": 6443, "\u2581Kurban": 6444, "\u2581Pen": 6445, "\u2581eksi": 6446, "\u2581ettir": 6447, "\u2581details": 6448, "\u2581de\u011filmi\u015f": 6449, "\u2581higher": 6450, "\u2581s\u00f6yledi\u011fim": 6451, "\u2581B\u00fcy\u00fc": 6452, "\u2581Majesteleri": 6453, "\u2581Belli": 6454, "\u2581oyuncu": 6455, "\u2581files": 6456, "\u0130yi": 6457, "\u2581m\u00fcthi\u015f": 6458, "\u2581tan\u0131\u015fma": 6459, "\u2581hissediyor": 6460, "\u2581cezas\u0131": 6461, "\u2581current": 6462, "\u2581edeceksin": 6463, "\u2581bike": 6464, "\u2581bilemiyorum": 6465, "\u2581rate": 6466, "form": 6467, "\u2581ON": 6468, "\u2581commit": 6469, "\u2581dealing": 6470, "\u2581olmasayd\u0131": 6471, "\u2581sistem": 6472, "\u2581outta": 6473, "\u2581protection": 6474, "\u2581\u00e7\u0131plak": 6475, "\u2581physical": 6476, "\u2581ekip": 6477, "\u2581olmamas\u0131": 6478, "\u2581\u00f6zledim": 6479, "\u2581olay\u0131n": 6480, "ium": 6481, "\u2581Din": 6482, "\u2581K\u0131zlar": 6483, "\u2581harcama": 6484, "\u2581contract": 6485, "\u2581mah": 6486, "\u2581professional": 6487, "\u2581s\u0131n\u0131r": 6488, "\u2581bilirim": 6489, "\u2581crack": 6490, "\u2581Sue": 6491, "\u2581\u00d6rne\u011fin": 6492, "\u2581gate": 6493, "des": 6494, "\u2581cesur": 6495, "\u2581Ly": 6496, "\u2581BE": 6497, "\u2581Mesih": 6498, "\u2581anla\u015f": 6499, "\u2581Terry": 6500, "\u2581Hollywood": 6501, "\u2581sil": 6502, "\u2581Do\u011fum": 6503, "\u2581k\u0131za": 6504, "\u2581ata": 6505, "\u2581chose": 6506, "\u2581letters": 6507, "\u2581indirdi": 6508, "eb": 6509, "\u2581cep": 6510, "\u2581Relax": 6511, "\u2581ke": 6512, "\u2581doors": 6513, "tle": 6514, "\u2581rent": 6515, "\u2581ortada": 6516, "\u2581akl\u0131ma": 6517, "\u2581davranma": 6518, "\u2581Derek": 6519, "\u2581Stone": 6520, "\u2581guided": 6521, "bit": 6522, "\u2581Garden": 6523, "\u2581olmazsa": 6524, "ever": 6525, "more": 6526, "\u2581yasal": 6527, "\u2581program\u0131": 6528, "\u2581Bravo": 6529, "\u2581partners": 6530, "sunu": 6531, "\u2581Pull": 6532, "\u2581Yarg\u0131\u00e7": 6533, "\u2581growing": 6534, "\u2581han\u0131m": 6535, "\u2581\u00f6ld\u00fcr\u00fcld\u00fc": 6536, "\u2581Elena": 6537, "\u2581temizle": 6538, "\u2581jerk": 6539, "nes": 6540, "tt": 6541, "\u2581Kar\u0131m": 6542, "\u2581resmen": 6543, "\u2581krizi": 6544, "\u2581River": 6545, "\u2581harekete": 6546, "\u2581Uyu": 6547, "\u2581kat\u0131lma": 6548, "\u2581sevdi\u011fini": 6549, "\u2581unit": 6550, "\u2581SO": 6551, "\u2581wise": 6552, "\u2581kas": 6553, "\u2581Clear": 6554, "\u2581British": 6555, "seydim": 6556, "\u2581sexual": 6557, "ction": 6558, "\u2581Hakl\u0131": 6559, "\u2581laid": 6560, "\u2581nedeniyle": 6561, "Ve": 6562, "esi": 6563, "\u2581fruit": 6564, "\u2581ihtiyac\u0131n\u0131z": 6565, "\u2581ink\u00e2r": 6566, "\u2581\u015feyle": 6567, "\u2581planned": 6568, "\u2581duygu": 6569, "\u2581motor": 6570, "\u2581havaya": 6571, "\u2581takma": 6572, "\u2581presence": 6573, "\u2581affair": 6574, "\u2581Kar\u015f\u0131": 6575, "ball": 6576, "\u2581lesson": 6577, "\u2581Sergeant": 6578, "\u2581dizi": 6579, "\u2581Hannah": 6580, "\u2581settle": 6581, "til": 6582, "\u2581Anyone": 6583, "\u2581s\u00f6yleyebilirim": 6584, "\u2581ge\u00e7irdim": 6585, "\u2581posta": 6586, "\u2581Hor": 6587, "bal": 6588, "\u2581g\u00f6zlerini": 6589, "\u2581Vic": 6590, "\u2581alakas\u0131": 6591, "\u2581becomes": 6592, "\u2581bite": 6593, "\u2581konu\u015fal\u0131m": 6594, "\u2581paint": 6595, "\u2581soldier": 6596, "\u00fcs": 6597, "\u2581yap\u0131lacak": 6598, "\u2581Jamie": 6599, "om": 6600, "hy": 6601, "\u2581amac\u0131": 6602, "\u2581Edward": 6603, "\u2581eri\u015f": 6604, "\u2581usual": 6605, "\u2581ge": 6606, "\u2581eksik": 6607, "\u2581violence": 6608, "\u2581kalaca\u011f\u0131m": 6609, "\u2581Ba\u015fbakan": 6610, "\u2581Gil": 6611, "\u2581falling": 6612, "\u2581d\u00fc\u015f\u00fcnmek": 6613, "\u2581kahvalt\u0131": 6614, "\u2581Guy": 6615, "ls": 6616, "\u2581Wayne": 6617, "\u2581fare": 6618, "17": 6619, "au": 6620, "tal": 6621, "\u2581koku": 6622, "\u2581gang": 6623, "ON": 6624, "\u2581snow": 6625, "\u2581ayakkab\u0131": 6626, "\u2581grave": 6627, "\u2581surface": 6628, "\u2581society": 6629, "ep": 6630, "unda": 6631, "yece\u011fim": 6632, "\u2581s\u00fct": 6633, "\u2581veremem": 6634, "cent": 6635, "\u2581Amerikal\u0131": 6636, "\u2581disappeared": 6637, "\u2581hile": 6638, "\u2581suck": 6639, "\u2581arkada\u015flar": 6640, "\u2581Whoever": 6641, "\u2581k\u00f6le": 6642, "\u2581\u0130\u00e7ki": 6643, "\u2581profesyonel": 6644, "\u2581storm": 6645, "\u2581wash": 6646, "\u2581obvious": 6647, "nt": 6648, "\u2581Sophie": 6649, "\u2581Major": 6650, "m\u0131zda": 6651, "\u2581olsayd\u0131m": 6652, "\u2581Kimi": 6653, "lat": 6654, "\u2581ge\u00e7erli": 6655, "\u2581Carlos": 6656, "\u2581concern": 6657, "\u2581edemez": 6658, "\u2581Der": 6659, "\u2581Marty": 6660, "\u2581tiny": 6661, "\u2581yerel": 6662, "\u2581mesela": 6663, "\u00c7ok": 6664, "\u2581provided": 6665, "\u2581similar": 6666, "\u2581Au": 6667, "\u2581y\u0131lda": 6668, "\u2581attacked": 6669, "ab\u0131": 6670, "\u00fcm\u00fcz": 6671, "\u2581garden": 6672, "\u2581Name": 6673, "\u2581milyar": 6674, "\u2581Fin": 6675, "\u2581Paray\u0131": 6676, "\u2581Carrie": 6677, "ika": 6678, "\u2581gerekirdi": 6679, "\u258129": 6680, "ince": 6681, "\u2581Albert": 6682, "\u2581tarih": 6683, "\u2581uyku": 6684, "40": 6685, "ros": 6686, "\u2581plant": 6687, "m\u0131\u015ft\u0131k": 6688, "\u2581ba\u015flayal\u0131m": 6689, "\u2581tongue": 6690, "\u2581bunda": 6691, "\u2581ba\u015flang\u0131\u00e7": 6692, "\u2581darkness": 6693, "\u2581dinlen": 6694, "over": 6695, "n\u0131zdan": 6696, "\u2581appear": 6697, "\u2581istemi\u015ftim": 6698, "\u2581\u015fekli": 6699, "\u2581g\u00f6r\u00fcn": 6700, "\u2581tan\u0131ma": 6701, "az": 6702, "mus": 6703, "\u2581Monte": 6704, "nla": 6705, "\u2581hastane": 6706, "\u2581\u00e7al\u0131\u015fmaya": 6707, "\u2581Mak": 6708, "\u2581hired": 6709, "\u2581Sea": 6710, "\u2581bulundu\u011fu": 6711, "eli": 6712, "\u2581odaklan": 6713, "\u2581izlemek": 6714, "\u2581bulunuyor": 6715, "\u2581Gitmem": 6716, "\u2581Homer": 6717, "\u2581\u00f6\u011frenme": 6718, "\u2581\u00fcye": 6719, "\u0131lmas\u0131": 6720, "\u2581\u015fart": 6721, "\u2581loud": 6722, "\u2581creation": 6723, "\u2581ku": 6724, "\u2581bread": 6725, "\u2581emir": 6726, "\u2581excellent": 6727, "\u2581\u00f6de": 6728, "\u2581\u00dcst": 6729, "\u2581yolculuk": 6730, "\u2581Sil": 6731, "\u2581Gene": 6732, "\u2581Gordon": 6733, "\u2581s\u00f6ylerim": 6734, "\u2581d\u00fc\u015f\u00fcnd\u00fcn": 6735, "\u2581kod": 6736, "\u2581fully": 6737, "\u2581tutuyor": 6738, "\u2581\u0130srail": 6739, "\u2581bedroom": 6740, "\u2581\u00f6d\u00fcn": 6741, "lock": 6742, "\u2581pie": 6743, "\u2581inan\u0131r": 6744, "\u2581dancing": 6745, "\u2581Sayfa": 6746, "\u2581istedi\u011finiz": 6747, "\u2581remind": 6748, "\u2581B\u00f6lge": 6749, "\u2581eskiden": 6750, "\u2581joy": 6751, "\u2581Betty": 6752, "\u2581headed": 6753, "25": 6754, "ilecek": 6755, "\u2581foreign": 6756, "\u2581Is": 6757, "\u2581kayb\u0131": 6758, "\u2581artist": 6759, "madan": 6760, "\u2581b\u00f6l": 6761, "\u2581ge\u00e7me": 6762, "\u2581Nihayet": 6763, "\u2581Bol": 6764, "\u2581duydu\u011fum": 6765, "\u2581olaylar": 6766, "\u2581bakar": 6767, "\u2581nimet": 6768, "\u2581weather": 6769, "\u2581neighborhood": 6770, "\u2581suffering": 6771, "\u2581hikmet": 6772, "\u2581tanesi": 6773, "00": 6774, "\u2581ald\u0131\u011f\u0131": 6775, "\u2581Blood": 6776, "\u2581ugly": 6777, "\u2581lower": 6778, "\u2581duygusal": 6779, "\u2581NATO": 6780, "say": 6781, "\u2581\u00e7\u0131kard\u0131": 6782, "\u2581vermeyece\u011fim": 6783, "\u2581Adam\u0131n": 6784, "\u2581charges": 6785, "\u2581tart\u0131\u015f": 6786, "\u2581forces": 6787, "\u2581harder": 6788, "\u2581hastal\u0131k": 6789, "aba": 6790, "\u2581Birini": 6791, "\u0131yorsunuz": 6792, "land\u0131r": 6793, "\u2581aday": 6794, "\u2581etti\u011fin": 6795, "\u2581kay\u0131t": 6796, "\u2581D\u00fc\u015f\u00fcn": 6797, "\u2581false": 6798, "\u2581bulaca\u011f\u0131m": 6799, "\u2581measure": 6800, "s\u0131nlar": 6801, "\u2581ismini": 6802, "\u2581mood": 6803, "\u2581g\u00f6revi": 6804, "\u2581Way": 6805, "\u2581gitmiyor": 6806, "\u2581kan\u0131": 6807, "\u2581ka\u00e7\u0131rma": 6808, "\u2581incredible": 6809, "ven": 6810, "\u2581chosen": 6811, "\u2581accepted": 6812, "\u2581yapar\u0131z": 6813, "\u2581proper": 6814, "\u2581yapars\u0131n": 6815, "\u2581lift": 6816, "\u2581pahal\u0131": 6817, "\u2581pair": 6818, "\u2581talep": 6819, "\u2581Nah": 6820, "\u2581fixed": 6821, "\u2581touched": 6822, "\u2581Mah": 6823, "\u2581birds": 6824, "\u2581drinks": 6825, "bur": 6826, "\u2581Cehennem": 6827, "\u2581bak\u0131yor": 6828, "\u2581ediyorsunuz": 6829, "\u2581Anla\u015fma": 6830, "\u2581Miami": 6831, "\u2581tepe": 6832, "\u2581duruma": 6833, "\u2581ka\u011f\u0131t": 6834, "yar": 6835, "\u2581gitmeye": 6836, "gle": 6837, "\u2581adalet": 6838, "\u2581konu\u015fuyorsun": 6839, "\u2581san\u0131yor": 6840, "d\u0131\u011f\u0131n\u0131z": 6841, "\u2581streets": 6842, "But": 6843, "\u2581media": 6844, "\u2581Parker": 6845, "\u2581\u015eimdiye": 6846, "\u2581noise": 6847, "\u2581Prince": 6848, "\u2581uydur": 6849, "\u2581bardak": 6850, "\u2581laughing": 6851, "\u2581Okul": 6852, "\u2581sipari\u015f": 6853, "\u2581Yard\u0131mc\u0131": 6854, "\u2581director": 6855, "\u2581uzay": 6856, "mizin": 6857, "\u2581stomach": 6858, "\u2581pleased": 6859, "\u2581a\u011fr\u0131": 6860, "\u2581ba\u015flat": 6861, "pon": 6862, "\u2581Ty": 6863, "\u2581ci": 6864, "\u2581demi\u015ftin": 6865, "}": 6866, "\u2581Afedersiniz": 6867, "\u2581education": 6868, "\u00fcst\u00fc": 6869, "\u2581tan\u0131\u015fmak": 6870, "\u2581nas\u0131ld\u0131": 6871, "\u2581Ad\u0131n": 6872, "\u2581billion": 6873, "\u2581Fer": 6874, "\u2581genelde": 6875, "\u2581rat": 6876, "E\u011fer": 6877, "\u2581Mil": 6878, "\u2581yolla": 6879, "mla": 6880, "\u2581Silah\u0131": 6881, "\u2581i\u00e7inden": 6882, "\u2581Lar": 6883, "\u2581remains": 6884, "\u2581\u015fans\u0131m\u0131z": 6885, "\u2581\u00f6l\u00fcm\u00fc": 6886, "\u2581Woo": 6887, "\u2581Queen": 6888, "\u2581easily": 6889, "\u0131rlar": 6890, "\u2581Ow": 6891, "\u2581geli\u015fme": 6892, "\u2581Forgive": 6893, "\u2581kad\u0131nla": 6894, "\u2581Ho\u015f\u00e7akal": 6895, "\u2581Konu\u015fma": 6896, "mad\u0131m": 6897, "\u2581kinds": 6898, "\u2581happiness": 6899, "\u2581Kingdom": 6900, "\u2581getiren": 6901, "\u2581sar\u0131": 6902, "\u2581Gold": 6903, "\u2581\u015funlar\u0131": 6904, "ska": 6905, "\u2581ayet": 6906, "\u2581Yol": 6907, "13": 6908, "\u2581pi\u015fman": 6909, "ries": 6910, "\u2581goodbye": 6911, "\u258131": 6912, "rik": 6913, "\u2581girin": 6914, "\u2581\u00f6fke": 6915, "\u2581atmak": 6916, "lu\u011fa": 6917, "\u2581bakt\u0131m": 6918, "\u2581Best": 6919, "\u2581remove": 6920, "qua": 6921, "\u2581Ses": 6922, "\u2581ailem": 6923, "\u2581\u00c7\u0131kar": 6924, "\u2581hastanede": 6925, "\u2581Mexico": 6926, "\u2581Randy": 6927, "\u2581aralar\u0131nda": 6928, "as\u0131": 6929, "\u2581Win": 6930, "\u2581ruined": 6931, "\u2581coat": 6932, "\u2581Ba\u015fkan\u0131": 6933, "\u2581Step": 6934, "\u2581gain": 6935, "\u2581Kit": 6936, "\u2581istiyordum": 6937, "\u2581Alt\u0131n": 6938, "\u2581brave": 6939, "ec": 6940, "\u2581hem\u015fire": 6941, "\u2581Dennis": 6942, "\u2581wound": 6943, "\u2581Berlin": 6944, "\u2581i\u00e7indir": 6945, "\u2581naked": 6946, "\u2581concerning": 6947, "18": 6948, "\u2581Telefonu": 6949, "ens": 6950, "\u2581{": 6951, "\u2581introduce": 6952, "vis": 6953, "\u2581vision": 6954, "\u2581b\u00f6l\u00fcm\u00fc": 6955, "\u2581August": 6956, "\u2581partisi": 6957, "\u2581renk": 6958, "m\u00fc": 6959, "\u2581tak\u0131l": 6960, "kini": 6961, "\u2581birisin": 6962, "\u2581cenaze": 6963, "\u2581Gun": 6964, "\u25817.": 6965, "\u011fi": 6966, "\u2581Olabilir": 6967, "\u2581detective": 6968, "\u2581wives": 6969, "\u2581kar\u0131m": 6970, "\u2581denen": 6971, "log": 6972, "\u2581kinda": 6973, "\u2581\u00fczerindeki": 6974, "ilir": 6975, "\u2581\u00d6nceki": 6976, "\u2581Christians": 6977, "\u2581Walker": 6978, "\u2581elimden": 6979, "\u2581koyun": 6980, "\u2581Kor": 6981, "\u2581g\u00f6r\u00fcn\u00fcyordu": 6982, "\u2581Birle\u015fik": 6983, "\u011fe": 6984, "eri": 6985, "\u2581ton": 6986, "s\u0131yla": 6987, "\u2581inter": 6988, "\u2581pig": 6989, "\u2581farm": 6990, "\u2581denk": 6991, "\u2581sides": 6992, "\u2581d\u00fcnyadaki": 6993, "\u2581tarz\u0131": 6994, "\u2581verdiler": 6995, "\u2581manage": 6996, "\u2581Follow": 6997, "\u2581fingers": 6998, "\u2581fu": 6999, "\u2581anla": 7000, "\u2581yang\u0131n": 7001, "cy": 7002, "\u2581error": 7003, "\u2581g\u00f6nderdik": 7004, "\u2581kazanma": 7005, "\u2581nazik": 7006, "\u2581arazi": 7007, "\u2581ba\u011f\u0131\u015f": 7008, "\u2581haz\u0131rla": 7009, "\u2581THIS": 7010, "\u2581de\u011filsiniz": 7011, "\u2581d\u00fc\u015f\u00fcn\u00fcyorsunuz": 7012, "\u2581rough": 7013, "\u2581patients": 7014, "\u2581Sweet": 7015, "\u2581hal": 7016, "ire": 7017, "\u2581Temiz": 7018, "\u2581ba\u015far\u0131s\u0131z": 7019, "\u2581Onlarla": 7020, "\u2581d\u00f6nerim": 7021, "\u2581Ste": 7022, "\u2581cheese": 7023, "\u2581varken": 7024, "\u2581tehlikeye": 7025, "\u2581\u00f6\u011fle": 7026, "\u2581Durumu": 7027, "\u2581yetki": 7028, "\u2581ederken": 7029, "\u2581o\u011flan": 7030, "\u2581Super": 7031, "\u2581\u00d6z": 7032, "\u2581AT": 7033, "yer": 7034, "\u2581elimizde": 7035, "\u2581sohbet": 7036, "Mo": 7037, "\u2581dersiniz": 7038, "\u2581haz\u0131r\u0131m": 7039, "hri": 7040, "\u2581tarif": 7041, "led": 7042, "\u2581Nina": 7043, "\u2581Vur": 7044, "\u2581solve": 7045, "\u2581Grant": 7046, "\u2581Bayanlar": 7047, "\u2581Nan": 7048, "\u2581Davis": 7049, "\u2581Prime": 7050, "\u2581bulunur": 7051, "Neden": 7052, "\u2581Burda": 7053, "\u2581runs": 7054, "\u2581k\u0131zla": 7055, "\u2581istiyordu": 7056, "li\u011fine": 7057, "\u2581ihtimalle": 7058, "\u2581\u00fcret": 7059, "\u2581Wood": 7060, "\u2581Af": 7061, "Ro": 7062, "\u2581stood": 7063, "#": 7064, "\u2581bi\u00e7imde": 7065, "\u2581otel": 7066, "\u2581Kenny": 7067, "\u2581Sy": 7068, "\u2581hastaneye": 7069, "vy": 7070, "\u2581denir": 7071, "\u2581invite": 7072, "\u2581tour": 7073, "\u2581girmi\u015f": 7074, "\u2581u\u00e7ak": 7075, "\u2581ja": 7076, "\u2581Jeremy": 7077, "They": 7078, "l\u0131lar": 7079, "\u2581Buyurun": 7080, "\u2581g\u00f6n\u00fcll\u00fc": 7081, "\u2581tavuk": 7082, "\u2581\u00fcst\u00fc": 7083, "\u258148": 7084, "\u2581gerekti\u011fi": 7085, "hra": 7086, "\u2581flesh": 7087, "\u2581sa\u011flamak": 7088, "\u2581se\u00e7enek": 7089, "\u2581g\u00f6rd\u00fck": 7090, "\u2581Normal": 7091, "\u2581sorabilir": 7092, "leyici": 7093, "\u2581iyisin": 7094, "\u2581kral": 7095, "\u2581diyen": 7096, "\u2581jobs": 7097, "\u2581Pazartesi": 7098, "\u2581Stephen": 7099, "\u2581dies": 7100, "\u2581pe": 7101, "\u2581buying": 7102, "\u2581arayaca\u011f\u0131m": 7103, "\u2581etmeliyiz": 7104, "\u0131l\u0131yor": 7105, "\u2581Drop": 7106, "\u2581Hav": 7107, "\u2581Avukat": 7108, "\u2581exact": 7109, "\u2581tri": 7110, "\u2581arzu": 7111, "\u2581i\u00e7er": 7112, "\u2581parties": 7113, "\u2581adl\u0131": 7114, "\u2581Yeniden": 7115, "\u2581Truth": 7116, "\u2581\u015fehri": 7117, "\u2581can\u0131n\u0131": 7118, "\u2581saving": 7119, "irim": 7120, "\u2581gelmesini": 7121, "\u2581flow": 7122, "\u2581Sid": 7123, "\u2581aside": 7124, "sky": 7125, "\u2581Apparently": 7126, "\u2581haberdar": 7127, "\u2581\u00dczerinde": 7128, "boy": 7129, "\u2581kare": 7130, "\u2581pocket": 7131, "\u2581Binba\u015f\u0131": 7132, "\u2581da\u011f": 7133, "\u2581bones": 7134, "\u2581orda": 7135, "\u2581zafer": 7136, "lis": 7137, "illa": 7138, "\u2581d\u00f6v\u00fc\u015f": 7139, "\u2581Anlam\u0131yorum": 7140, "\u2581alakal\u0131": 7141, "\u2581Grand": 7142, "\u2581expensive": 7143, "\u2581airport": 7144, "kafa": 7145, "\u2581almam": 7146, "\u2581anahtar\u0131": 7147, "\u2581Word": 7148, "\u2581license": 7149, "\u2581Commander": 7150, "\u2581fathers": 7151, "\u2581ayarla": 7152, "\u2581giant": 7153, "\u2581i\u00e7me": 7154, "\u2581Yaz": 7155, "\u2581temas": 7156, "\u2581style": 7157, "\u2581i\u015flerini": 7158, "dirler": 7159, "yaca\u011f\u0131z": 7160, "\u2581je": 7161, "\u2581\u00e7ekip": 7162, "\u2581Martha": 7163, "\u2581Cuma": 7164, "\u2581bitirme": 7165, "\u2581ba\u015f\u0131ndan": 7166, "\u2581isterseniz": 7167, "\u2581kafay\u0131": 7168, "\u2581Casey": 7169, "\u2581noktas\u0131": 7170, "\u2581bilin": 7171, "\u2581\u015fok": 7172, "\u2581kaynak": 7173, "hat": 7174, "\u2581Bridge": 7175, "\u2581olman\u0131": 7176, "\u2581powers": 7177, "\u2581photos": 7178, "t\u0131\u011f\u0131": 7179, "\u2581\u00f6\u011fretmen": 7180, "\u2581eggs": 7181, "\u2581hat\u0131rlam\u0131yorum": 7182, "\u2581kenara": 7183, "\u2581unuttum": 7184, "\u2581Bilgisayar": 7185, "\u2581clock": 7186, "\u2581Pis": 7187, "\u2581gidebilir": 7188, "\u2581\u00e7i\u00e7ek": 7189, "muyor": 7190, "\u2581kira": 7191, "\u2581Seven": 7192, "\u2581a\u00e7\u0131dan": 7193, "\u2581i\u00e7mek": 7194, "\u2581derdi": 7195, "\u2581Yara": 7196, "ste": 7197, "\u2581arabaya": 7198, "\u2581haberler": 7199, "\u2581Land": 7200, "zan": 7201, "\u2581Gal": 7202, "\u2581art\u0131": 7203, "\u2581olduk": 7204, "\u2581burning": 7205, "\u2581koyma": 7206, "\u2581kal\u0131p": 7207, "\u2581\u00f6nem": 7208, "\u2581sorunlar\u0131": 7209, "era": 7210, "\u2581Eee": 7211, "\u2581ar\u0131": 7212, "\u2581servis": 7213, "\u2581dump": 7214, "\u2581g\u00f6z\u00fc": 7215, "\u2581\u015e\u00fcphe": 7216, "\u2581mutluluk": 7217, "\u2581Oscar": 7218, "\u2581olu\u015fan": 7219, "isi": 7220, "\u2581kuvvet": 7221, "liyor": 7222, "\u2581sudden": 7223, "\u2581durdu": 7224, "\u2581Water": 7225, "\u2581Ethan": 7226, "\u2581kontrol\u00fc": 7227, "\u2581\u00d6ld\u00fc": 7228, "\u2581Witnesses": 7229, "\u2581Ada": 7230, "\u2581doctors": 7231, "meliydim": 7232, "\u2581kazand\u0131": 7233, "\u2581olaca\u011f\u0131": 7234, "\u2581g\u00f6r\u00fcnm\u00fcyor": 7235, "\u2581Steven": 7236, "\u2581uzakla\u015f": 7237, "\u2581verdi\u011fim": 7238, "\u2581appointment": 7239, "\u2581ediyordum": 7240, "\u2581insurance": 7241, "\u2581kayd\u0131": 7242, "80": 7243, "g\u00fcn": 7244, "\u2581Gabriel": 7245, "gh": 7246, "\u2581\u015fehrin": 7247, "\u2581exchange": 7248, "cus": 7249, "\u2581Yedi": 7250, "\u2581lonely": 7251, "\u2581tehlike": 7252, "\u2581Arama": 7253, "\u2581izleme": 7254, "Don": 7255, "\u2581Sizden": 7256, "\u2581bebe\u011fi": 7257, "\u2581intikam": 7258, "ef": 7259, "amayacak": 7260, "\u2581toprak": 7261, "\u2581souls": 7262, "\u2581za": 7263, "\u2581Kid": 7264, "\u2581siyasi": 7265, "lendi": 7266, "\u2581sisters": 7267, "\u2581cad\u0131": 7268, "El": 7269, "\u2581Millet": 7270, "\u2581bat\u0131": 7271, "\u2581\u00dc": 7272, "\u2581bulup": 7273, "\u2581doldur": 7274, "\u2581nas\u0131ls\u0131n": 7275, "\u2581\u015firketin": 7276, "\u2581bela": 7277, "\u2581buraday\u0131z": 7278, "\u2581sonras\u0131nda": 7279, "\u2581olmazd\u0131": 7280, "\u2581yahu": 7281, "\u2581sooner": 7282, "\u2581Francis": 7283, "\u2581claim": 7284, "\u2581direct": 7285, "\u2581kasaba": 7286, "\u2581d\u00fc\u015fme": 7287, "\u2581verildi": 7288, "\u2581A\u015fa\u011f\u0131": 7289, "\u2581etkisi": 7290, "\u2581nurse": 7291, "\u2581serseri": 7292, "\u2581tuvalet": 7293, "yerek": 7294, "\u2581rise": 7295, "\u2581\u00e7ekilin": 7296, "mann": 7297, "\u2581gene": 7298, "\u2581holy": 7299, "\u2581e\u011f": 7300, "\u2581sugar": 7301, "\u2581gecesi": 7302, "\u2581r\u00fczgar": 7303, "\u258132": 7304, "03": 7305, "\u2581ilerleme": 7306, "\u2581say\u0131da": 7307, "\u2581sandalye": 7308, "\u2581load": 7309, "\u2581bal": 7310, "\u2581sevimli": 7311, "la\u015fma": 7312, "\u2581Gre": 7313, "\u2581keresinde": 7314, "\u2581par": 7315, "\u2581sa\u011fl\u0131kl\u0131": 7316, "gor": 7317, "\u2581Ellen": 7318, "\u2581handsome": 7319, "k\u00e2r": 7320, "\u2581reported": 7321, "\u2581Africa": 7322, "\u2581Buray\u0131": 7323, "\u2581a\u011fa\u00e7": 7324, "\u2581kad\u0131na": 7325, "\u2581Bit": 7326, "\u2581Children": 7327, "\u2581orta\u011f\u0131": 7328, "\u2581\u015ea": 7329, "\u2581request": 7330, "\u2581served": 7331, "\u2581genellikle": 7332, "\u2581Birileri": 7333, "\u2581Kir": 7334, "ray": 7335, "nik": 7336, "\u2581Greek": 7337, "\u2581ki\u015filik": 7338, "\u2581h": 7339, "\u2581olmal\u0131y\u0131m": 7340, "\u2581border": 7341, "\u2581sa\u011fla": 7342, "\u2581increase": 7343, "\u2581\u015fans\u0131n": 7344, "\u2581Julian": 7345, "\u2581warrant": 7346, "lenme": 7347, "\u2581\u015eimdilik": 7348, "\u2581cab": 7349, "\u2581watched": 7350, "\u2581Sik": 7351, "\u2581aynen": 7352, "\u2581witnesses": 7353, "\u2581\u00fcniversite": 7354, "\u2581\u00e7al\u0131\u015fm\u0131yor": 7355, "\u2581Kent": 7356, "\u2581g\u00fcnd\u00fcr": 7357, "\u2581kurallar\u0131": 7358, "\u2581Birinci": 7359, "\u2581bari": 7360, "\u2581Jews": 7361, "\u2581muyuz": 7362, "\u2581MY": 7363, "\u2581dedi\u011fini": 7364, "\u2581K\u0131z\u0131n": 7365, "\u2581kulland\u0131\u011f\u0131": 7366, "\u2581Caroline": 7367, "ebilirsiniz": 7368, "lah": 7369, "cher": 7370, "\u2581hani": 7371, "\u2581Ruth": 7372, "\u2581confused": 7373, "\u2581\u015feydir": 7374, "\u2581getiriyor": 7375, "\u2581Bekleyin": 7376, "\u2581d\u0131\u015f\u0131na": 7377, "\u2581goin": 7378, "\u2581memories": 7379, "\u2581sar\u0131l": 7380, "\u2581hatam": 7381, "\u2581birinde": 7382, "\u2581s\u00f6zleri": 7383, "14": 7384, "\u2581Party": 7385, "\u2581evlen": 7386, "\u2581Kad\u0131nlar": 7387, "nizden": 7388, "\u2581burned": 7389, "\u2581almay\u0131": 7390, "\u2581vermem": 7391, "t\u0131\u011f\u0131n\u0131": 7392, "\u2581piss": 7393, "\u2581anger": 7394, "\u2581hay": 7395, "\u2581Ari": 7396, "\u2581Lock": 7397, "\u2581sacrifice": 7398, "\u2581toilet": 7399, "\u2581etrafta": 7400, "\u2581steps": 7401, "\u2581soft": 7402, "\u2581policy": 7403, "\u2581gizle": 7404, "000": 7405, "\u2581successful": 7406, "\u2581Kimsenin": 7407, "\u2581drove": 7408, "\u2581campaign": 7409, "\u2581bayanlar": 7410, "\u2581ba\u011f": 7411, "\u2581hepiniz": 7412, "\u2581yazd\u0131": 7413, "syon": 7414, "\u00fc\u015f": 7415, "\u2581ettiniz": 7416, "\u2581Pick": 7417, "\u2581reports": 7418, "\u2581\u0131\u015f\u0131\u011f\u0131": 7419, "ano": 7420, "\u2581halka": 7421, "\u2581gerekmez": 7422, "\u2581yumu\u015fak": 7423, "\u2581approach": 7424, "\u2581ipucu": 7425, "\u2581nerde": 7426, "\u011f\u0131n\u0131": 7427, "\u2581Neither": 7428, "\u2581Owen": 7429, "\u2581getirdin": 7430, "\u2581bone": 7431, "\u2581doin": 7432, "\u2581separate": 7433, "\u2581romantic": 7434, "\u2581inanm\u0131yorum": 7435, "\u2581Marshall": 7436, "\u2581oluyorum": 7437, "\u2581Rabbimiz": 7438, "\u2581behavior": 7439, "\u2581below": 7440, "\u2581McG": 7441, "\u2581\u0130\u015fi": 7442, "ible": 7443, "\u2581kom": 7444, "\u2581celebrate": 7445, "\u2581goal": 7446, "\u2581hesab\u0131": 7447, "\u2581vacation": 7448, "\u2581Play": 7449, "\u2581yapt\u0131\u011f\u0131n\u0131z": 7450, "emeyiz": 7451, "\u2581uzman": 7452, "\u2581S\u0131ra": 7453, "\u2581g\u00f6ze": 7454, "light": 7455, "\u2581traffic": 7456, "\u2581G\u00f6r": 7457, "\u2581Honor": 7458, "\u2581Japanese": 7459, "\u2581Wil": 7460, "\u2581score": 7461, "\u2581shake": 7462, "ts": 7463, "\u2581hayat\u0131n\u0131n": 7464, "\u2581spring": 7465, "\u2581s\u00fc": 7466, "\u2581Bilgi": 7467, "\u2581Birazdan": 7468, "\u2581pe\u015finden": 7469, "\u2581dinleme": 7470, "\u2581victory": 7471, "\u2581carrying": 7472, "yip": 7473, "\u2581banyo": 7474, "\u2581bleeding": 7475, "\u2581ger": 7476, "\u2581hayata": 7477, "\u2581uzat": 7478, "\u2581gelmesi": 7479, "\u2581\u00c7anta": 7480, "\u2581Nancy": 7481, "\u2581kar\u0131": 7482, "\u2581vergi": 7483, "\u2581\u0130\u015fler": 7484, "\u2581Said": 7485, "\u2581singing": 7486, "\u2581yat\u0131r": 7487, "aj": 7488, "\u2581d\u00fczen": 7489, "\u2581jacket": 7490, "\u2581Yak\u0131n": 7491, "\u2581prevent": 7492, "\u2581\u015fahit": 7493, "\u2581911": 7494, "ebilirsin": 7495, "\u2581row": 7496, "\u2581China": 7497, "\u2581s\u00f6yl\u00fcyorlar": 7498, "La": 7499, "\u2581Light": 7500, "like": 7501, "\u2581genius": 7502, "\u2581kar\u0131\u015fma": 7503, "\u011fu": 7504, "\u2581saklan": 7505, "\u2581network": 7506, "\u2581changing": 7507, "\u2581kald\u0131n": 7508, "\u2581Ad": 7509, "\u2581Neredesin": 7510, "\u2581Uyu\u015fturucu": 7511, "\u2581minus": 7512, "\u2581baban\u0131n": 7513, "\u2581appears": 7514, "mmer": 7515, "\u2581edge": 7516, "\u2581hafif": 7517, "\u2581cevab\u0131": 7518, "ebilece\u011fini": 7519, "\u2581Bakan\u0131": 7520, "\u2581meal": 7521, "lan\u0131r": 7522, "ett": 7523, "lanacak": 7524, "\u2581curse": 7525, "\u2581woods": 7526, "\u2581ibaret": 7527, "ero": 7528, "\u2581Hong": 7529, "\u2581horses": 7530, "\\": 7531, "\u2581screen": 7532, "\u2581yapmal\u0131y\u0131z": 7533, "\u2581Evi": 7534, "\u2581ald\u0131\u011f\u0131n\u0131": 7535, "\u2581specific": 7536, "\u2581\u00e7ald\u0131": 7537, "Well": 7538, "\u2581\u00f6ld\u00fc\u011f\u00fcn\u00fc": 7539, "\u2581Use": 7540, "\u2581dev": 7541, "m\u0131\u015f\u0131m": 7542, "lar\u0131m\u0131z\u0131n": 7543, "\u2581g\u00f6r\u00fc\u015fmek": 7544, "\u2581warned": 7545, "\u2581stock": 7546, "\u2581Dun": 7547, "\u2581hayvanlar": 7548, "\u2581Bell": 7549, "\u2581eventually": 7550, "\u2581Earl": 7551, "\u2581Teddy": 7552, "\u2581Audrey": 7553, "\u25812008": 7554, "\u2581device": 7555, "\u2581e\u011flen": 7556, "ath": 7557, "\u2581hissediyorsun": 7558, "chan": 7559, "\u2581Diane": 7560, "\u2581Sky": 7561, "\u2581\u00f6rt": 7562, "\u2581\u015fiddetli": 7563, "m\u0131yoruz": 7564, "meden": 7565, "\u2581lack": 7566, "la\u015f": 7567, "\u2581prepare": 7568, "\u2581sordum": 7569, "\u2581yapamazs\u0131n": 7570, "\u2581Numara": 7571, "oth": 7572, "\u2581onay": 7573, "anne": 7574, "\u2581Close": 7575, "\u2581bright": 7576, "\u2581ocean": 7577, "\u2581painting": 7578, "\u2581\u015e": 7579, "\u2581ga": 7580, "\u2581olmama": 7581, "\u2581aya\u011fa": 7582, "\u2581Cla": 7583, "\u2581ships": 7584, "\u2581mail": 7585, "\u2581downstairs": 7586, "04": 7587, "\u2581Tonight": 7588, "\u2581Av": 7589, "\u2581intend": 7590, "\u2581\u00e7e\u015fitli": 7591, "\u2581assistant": 7592, "\u2581Rome": 7593, "\u2581mevcut": 7594, "\u2581wisdom": 7595, "meyece\u011fini": 7596, "\u2581K\u0131z\u0131m": 7597, "\u2581material": 7598, "are": 7599, "\u2581Cap": 7600, "\u2581brilliant": 7601, "\u2581\u00e7eker": 7602, "05": 7603, "\u2581illegal": 7604, "\u2581\u00f6ld\u00fcr\u00fcr": 7605, "ella": 7606, "\u2581sa\u011flar": 7607, "\u2581bound": 7608, "\u2581Free": 7609, "\u2581carried": 7610, "\u2581Barb": 7611, "\u2581elimde": 7612, "\u2581\u00dcniversitesi": 7613, "\u2581Pharaoh": 7614, "\u2581yapt\u0131n\u0131z": 7615, "\u2581kahrolas\u0131": 7616, "\u2581K\u0131z\u0131": 7617, "\u2581yumruk": 7618, "\u2581Court": 7619, "\u2581healthy": 7620, "\u25814,": 7621, "\u2581Barbara": 7622, "\u2581Poor": 7623, "\u2581konu\u015fur": 7624, "\u2581\u015fapka": 7625, "\u2581\u015fikayet": 7626, "\u2581species": 7627, "mur": 7628, "\u2581fortune": 7629, "\u2581g\u00f6t\u00fcrd\u00fc": 7630, "There": 7631, "\u2581Korkun\u00e7": 7632, "\u2581olmayabilir": 7633, "\u2581\u00e7ekim": 7634, "\u2581duy": 7635, "\u2581stronger": 7636, "\u2581yeti\u015ftir": 7637, "\u2581waited": 7638, "jin": 7639, "\u2581Federal": 7640, "\u2581Florida": 7641, "\u2581Under": 7642, "EL": 7643, "\u2581conference": 7644, "-2": 7645, "\u2581gelmeden": 7646, "\u2581Sor": 7647, "\u2581ald\u0131\u011f\u0131m": 7648, "\u2581port": 7649, "\u2581Tess": 7650, "\u2581bak\u0131yorsun": 7651, "\u2581g\u00f6lge": 7652, "\u2581Raymond": 7653, "\u2581yeti\u015fkin": 7654, "mal\u0131yd\u0131m": 7655, "ebiliyor": 7656, "\u2581exciting": 7657, "\u2581walls": 7658, "\u2581Won": 7659, "\u2581kasa": 7660, "\u2581Yusuf": 7661, "\u2581tickets": 7662, "ound": 7663, "\u2581cheap": 7664, "\u2581understood": 7665, "\u2581eline": 7666, "\u2581Margaret": 7667, "\u2581coach": 7668, "\u2581bak\u0131yorum": 7669, "\u2581capable": 7670, "\u2581thus": 7671, "\u2581\u015fehirde": 7672, "kat": 7673, "\u2581Garip": 7674, "\u2581sa\u011flayacak": 7675, "ical": 7676, "\u2581kaya": 7677, "\u2581Save": 7678, "\u2581crash": 7679, "\u2581yaratan": 7680, "\u2581insanlardan": 7681, "\u2581davran\u0131\u015f": 7682, "am\u0131yor": 7683, "\u2581Unutma": 7684, "\u2581Veya": 7685, "\u2581kalmaz": 7686, "\u2581owner": 7687, "mem": 7688, "\u2581Rad": 7689, "\u2581d\u00fc\u015f\u00fcn\u00fcn": 7690, "\u2581cin": 7691, "\u2581\u015fifre": 7692, "\u2581Kalp": 7693, "\u2581mermi": 7694, "\u2581sefere": 7695, "\u2581wipe": 7696, "\u2581Arkada\u015f\u0131m": 7697, "\u2581\u015eark\u0131": 7698, "\u2581ge\u00e7ecek": 7699, "\u2581demedim": 7700, "\u2581depo": 7701, "\u2581d\u00fc\u015f\u00fcnm\u00fcyorum": 7702, "\u2581edersen": 7703, "\u2581\u00f6ne": 7704, "\u2581s\u00fcrecek": 7705, "wo": 7706, "\u2581delivered": 7707, "\u2581g\u00f6remiyorum": 7708, "likle": 7709, "\u2581sava\u015f\u0131": 7710, "\u2581Gen": 7711, "\u2581Memnun": 7712, "\u2581grace": 7713, "\u2581directly": 7714, "use": 7715, "le\u015fme": 7716, "\u2581route": 7717, "\u2581tekne": 7718, "\u2581v\u00fccut": 7719, "\u2581g\u00f6rm\u00fcyor": 7720, "\u2581sevmez": 7721, "She": 7722, "\u2581range": 7723, "\u2581faithful": 7724, "\u2581operasyon": 7725, "\u2581d\u00f6vme": 7726, "\u2581G\u00fc\u00e7": 7727, "\u2581Karl": 7728, "aber": 7729, "\u2581Leon": 7730, "\u2581leads": 7731, "\u2581sorular": 7732, "\u2581\u00e7arp\u0131": 7733, "ola": 7734, "\u2581Meksika": 7735, "\u2581Cass": 7736, "lor": 7737, "\u2581\u00dclke": 7738, "\u2581ba\u015fkan": 7739, "\u2581etmelisin": 7740, "\u2581memur": 7741, "\u2581Coming": 7742, "\u2581denied": 7743, "\u2581effort": 7744, "\u2581KNOW": 7745, "\u2581uluslararas\u0131": 7746, "\u2581biter": 7747, "\u2581seviye": 7748, "\u2581ucuz": 7749, "\u2581Aye": 7750, "\u2581d\u00f6v": 7751, "\u2581desert": 7752, "\u2581geldiler": 7753, "\u2581loving": 7754, "\u2581Walt": 7755, "\u2581online": 7756, "\u2581ederse": 7757, "\u2581picking": 7758, "\u2581\u00fcz\u00fcld\u00fcm": 7759, "\u2581burden": 7760, "\u2581g\u00fcnden": 7761, "bie": 7762, "\u2581advantage": 7763, "\u2581mass": 7764, "\u2581design": 7765, "\u2581kullu": 7766, "tis": 7767, "\u2581Miles": 7768, "cker": 7769, "\u2581Y\u0131ld\u0131z": 7770, "\u2581g\u00f6t": 7771, "\u2581aramak": 7772, "\u2581bond": 7773, "\u2581Wake": 7774, "\u2581Resurrection": 7775, "\u2581awake": 7776, "\u2581hassas": 7777, "\u2581Lewis": 7778, "\u2581\u00f6lmek": 7779, "\u2581personally": 7780, "Seni": 7781, "\u2581Security": 7782, "\u2581vermiyor": 7783, "\u2581Wall": 7784, "\u2581kingdom": 7785, "\u2581spoken": 7786, "\u2581teknik": 7787, "\u2581Rica": 7788, "\u2581sokak": 7789, "\u2581Victoria": 7790, "\u2581ability": 7791, "\u2581say\u0131s\u0131": 7792, "n\u0131z\u0131n": 7793, "\u2581kime": 7794, "bon": 7795, "\u2581Jennifer": 7796, "\u2581cure": 7797, "\u2581Erkekler": 7798, "\u2581defense": 7799, "\u2581schedule": 7800, "\u2581sa\u011fl\u0131yor": 7801, "meyece\u011fiz": 7802, "\u2581Ailem": 7803, "\u2581ki\u015fiye": 7804, "\u2581whenever": 7805, "\u2581Joan": 7806, "\u2581madam": 7807, "i\u011fi": 7808, "\u2581Lind": 7809, "\u2581Toby": 7810, "\u2581Buck": 7811, "\u2581praise": 7812, "\u2581ba\u015fl\u0131yoruz": 7813, "\u2581Dee": 7814, "\u2581bulaca\u011f\u0131z": 7815, "\u2581isterse": 7816, "\u2581bulur": 7817, "\u2581gelsin": 7818, "\u2581limit": 7819, "\u2581\u0130\u015fleri": 7820, "\u2581etsin": 7821, "\u2581ili\u015fkin": 7822, "\u2581st": 7823, "\u2581s\u00fcr\u00fcyor": 7824, "Go": 7825, "\u2581Yakla\u015f\u0131k": 7826, "\u2581ihtiyar": 7827, "\u2581scare": 7828, "\u2581Pin": 7829, "\u2581Las": 7830, "\u2581Send": 7831, "\u2581memuru": 7832, "\u2581beyefendi": 7833, "\u2581e\u015flik": 7834, "\u2581etmiyorum": 7835, "\u2581spell": 7836, "\u2581\u00fcyeleri": 7837, "\u2581Hindistan": 7838, "\u2581Mickey": 7839, "\u2581siktir": 7840, "\u2581plain": 7841, "\u2581ta\u015f\u0131ma": 7842, "\u2581Ruh": 7843, "\u2581giyin": 7844, "\u2581Clay": 7845, "\u2581Dayan": 7846, "\u2581yi": 7847, "\u2581Ellerini": 7848, "\u2581odd": 7849, "\u2581Foto\u011fraf": 7850, "\u2581younger": 7851, "\u2581i\u015fimi": 7852, "\u2581d\u00fc\u015f\u00fcnd\u00fc\u011f\u00fcn\u00fc": 7853, "\u2581fark\u0131nday\u0131m": 7854, "\u2581affet": 7855, "\u2581biridir": 7856, "\u2581Rosa": 7857, "Ba": 7858, "Merhaba": 7859, "\u2581Kon": 7860, "lam\u0131\u015f": 7861, "\u2581economic": 7862, "\u2581yalvar": 7863, "\u2581Atla": 7864, "\u2581boktan": 7865, "\u2581Yukar\u0131": 7866, "\u2581bahsetme": 7867, "\u2581m\u0131yd\u0131n": 7868, "\u2581becoming": 7869, "\u2581Su\u00e7": 7870, "vet": 7871, "\u2581Night": 7872, "\u2581Madem": 7873, "sayd\u0131": 7874, "\u2581do\u011fruyu": 7875, "\u2581sorgu": 7876, "\u2581\u00f6\u011fretti": 7877, "evi": 7878, "\u2581giderken": 7879, "\u2581function": 7880, "\u2581fantastic": 7881, "\u25812000": 7882, "\u2581tren": 7883, "\u2581boring": 7884, "\u2581Hayat\u0131n\u0131": 7885, "\u2581\u00e7\u0131kar\u0131n": 7886, "ti\u011fi": 7887, "\u2581delik": 7888, "\u2581fark\u0131n": 7889, "\u2581Bon": 7890, "\u2581babies": 7891, "\u2581akl\u0131n\u0131": 7892, "\u2581gezi": 7893, "\u2581korkuyor": 7894, "\u2581gitmeliyim": 7895, "\u2581Plus": 7896, "\u2581Sonsuz": 7897, "\u2581boz": 7898, "\u2581\u00f6ld\u00fcrece\u011fim": 7899, "\u2581chastise": 7900, "\u2581b\u0131rakm\u0131\u015f": 7901, "\u2581ot": 7902, "\u2581uydu": 7903, "tum": 7904, "\u2581konu\u015furuz": 7905, "\u2581silver": 7906, "\u2581grade": 7907, "\u2581Number": 7908, "\u2581kaybettik": 7909, "\u2581\u00e7at": 7910, "\u2581u\u00e7u\u015f": 7911, "\u2581challenge": 7912, "\u2581e\u015fi": 7913, "mesine": 7914, "\u2581Berbat": 7915, "\u2581fayda": 7916, "\u2581a\u011fla": 7917, "\u2581Sin": 7918, "\u2581events": 7919, "\u2581makinesi": 7920, "Bana": 7921, "\u2581\u015fiddet": 7922, "\u2581\u0130kisi": 7923, "cal": 7924, "\u2581task": 7925, "\u2581hara": 7926, "\u2581kurt": 7927, "\u2581Frans\u0131zca": 7928, "\u25812007": 7929, "\u2581CD": 7930, "\u2581Arkada\u015f": 7931, "\u2581h\u0131rs\u0131z": 7932, "\u2581radyo": 7933, "\u2581wide": 7934, "\u2581harita": 7935, "\u2581grant": 7936, "\u2581i\u015fle": 7937, "\u2581pounds": 7938, "IR": 7939, "\u2581dert": 7940, "\u2581Krali\u00e7e": 7941, "\u2581g\u00f6sterme": 7942, "\u2581tad\u0131n\u0131": 7943, "yaca\u011f\u0131n\u0131": 7944, "\u2581\u00f6l\u00fcr": 7945, "\u2581Perfect": 7946, "\u2581istemedi": 7947, "\u2581bu\u00e7uk": 7948, "\u2581Birinin": 7949, "\u2581ham": 7950, "\u2581Dava": 7951, "\u2581Test": 7952, "\u2581gentleman": 7953, "\u2581Haven": 7954, "\u2581m\u00fcjde": 7955, "\u0131yorlar": 7956, "imizin": 7957, "\u2581fiziksel": 7958, "\u2581potential": 7959, "\u2581ihtiya\u00e7lar\u0131": 7960, "\u2581spare": 7961, "\u2581okulda": 7962, "\u2581Geliyorum": 7963, "\u2581oldu\u011funun": 7964, "\u2581sapt\u0131r": 7965, "\u2581Thou": 7966, "\u2581convinced": 7967, "\u2581shock": 7968, "\u2581kilise": 7969, "\u2581Karar": 7970, "\u2581gather": 7971, "\u2581ya\u015f\u0131yorum": 7972, "\u2581getireyim": 7973, "\u2581sat\u0131\u015f": 7974, "\u2581loan": 7975, "\u2581swim": 7976, "\u2581i\u011fne": 7977, "\u2581kek": 7978, "\u2581tad\u0131": 7979, "\u2581vermi\u015fti": 7980, "mi\u015fim": 7981, "\u2581vah\u015fi": 7982, "\u2581March": 7983, "\u2581hire": 7984, "\u2581deneyim": 7985, "\u2581ey": 7986, "\u2581Tuesday": 7987, "\u2581girerim": 7988, "\u2581dinlemek": 7989, "\u2581Especially": 7990, "\u2581katta": 7991, "\u2581tan": 7992, "\u2581konu\u015fan": 7993, "\u2581y\u00f6nel": 7994, "\u2581al\u0131nd\u0131": 7995, "\u2581darbe": 7996, "abilmek": 7997, "\u2581bath": 7998, "\u2581derhal": 7999, "\u2581spiritual": 8000, "bat": 8001, "\u2581\u0131srar": 8002, "\u25813.": 8003, "\u2581Sat": 8004, "\u2581Michelle": 8005, "Where": 8006, "\u2581Cheers": 8007, "\u2581beden": 8008, "\u2581onur": 8009, "\u2581yerlere": 8010, "%": 8011, "\u2581anlar": 8012, "\u2581Whoo": 8013, "\u2581ge\u00e7irdi": 8014, "\u2581basically": 8015, "\u2581bildir": 8016, "\u2581g\u00fcvenli\u011fi": 8017, "\u2581Russell": 8018, "\u2581f\u0131rt\u0131na": 8019, "\u2581gen": 8020, "\u2581moves": 8021, "\u2581YOUR": 8022, "\u2581garanti": 8023, "\u2581ni\u00e7in": 8024, "\u2581fancy": 8025, "\u2581kocam": 8026, "\u2581Kore": 8027, "\u2581otherwise": 8028, "\u2581creatures": 8029, "\u2581kocaman": 8030, "\u2581aran\u0131zda": 8031, "\u2581listesi": 8032, "\u2581\u00dc\u00e7\u00fcnc\u00fc": 8033, "\u2581bow": 8034, "\u2581haks\u0131z": 8035, "\u2581deri": 8036, "\u2581raporu": 8037, "\u2581goodness": 8038, "\u2581hip": 8039, "hur": 8040, "\u2581Oldu": 8041, "\u2581crowd": 8042, "\u2581demi\u015f": 8043, "\u2581y\u00fcz\u00fc": 8044, "\u2581laf": 8045, "pen": 8046, "\u2581Castle": 8047, "\u2581Norman": 8048, "\u2581isyan": 8049, "\u2581teaching": 8050, "\u2581Kra": 8051, "\u2581birbirimizi": 8052, "s\u00fcz": 8053, "yarak": 8054, "\u2581placed": 8055, "leyen": 8056, "m\u0131\u015flar": 8057, "\u2581Kaza": 8058, "\u2581annemin": 8059, "\u2581\u00f6\u011fleden": 8060, "\u2581dar": 8061, "\u2581Beraber": 8062, "07": 8063, "\u2581Philip": 8064, "\u2581bilgileri": 8065, "\u2581dili": 8066, "\u2581circumstances": 8067, "\u2581\u00c7eviri": 8068, "\u2581article": 8069, "\u2581M\u0131s\u0131r": 8070, "06": 8071, "\u2581g\u00f6r\u00fcyorsun": 8072, "\u2581bulunma": 8073, "\u2581Soon": 8074, "\u2581bilinen": 8075, "\u2581kicked": 8076, "\u2581s\u00fcrede": 8077, "ora": 8078, "stein": 8079, "\u2581gelirim": 8080, "\u2581taze": 8081, "\u2581patlat": 8082, "jan": 8083, "sinler": 8084, "\u2581aunt": 8085, "08": 8086, "\u2581konu\u015ftuk": 8087, "\u2581revenge": 8088, "\u2581yarg\u0131": 8089, "\u2581ge\u00e7ici": 8090, "16": 8091, "\u2581G\u00f6ster": 8092, "\u2581dedi\u011fi": 8093, "\u2581judgment": 8094, "\u2581region": 8095, "\u2581sus": 8096, "\u2581Bor": 8097, "\u2581Meryem": 8098, "\u2581k\u00fcl": 8099, "\u2581sabit": 8100, "\u2581winter": 8101, "\u2581Gerek": 8102, "\u2581Shin": 8103, "\u2581s\u00fcrt\u00fck": 8104, "\u2581Bahse": 8105, "\u2581Malcolm": 8106, "\u2581Virginia": 8107, "\u2581alaca\u011f\u0131z": 8108, "\u2581\u015furada": 8109, "\u2581Maya": 8110, "\u2581gergin": 8111, "\u2581shift": 8112, "\u2581yapmad\u0131": 8113, "\u2581fi": 8114, "\u2581yaratt\u0131\u011f\u0131": 8115, "\u2581giderim": 8116, "\u2581crimes": 8117, "\u2581D\u00fcr\u00fcst": 8118, "\u2581rescue": 8119, "\u2581ba\u015fta": 8120, "\u2581g\u00fcvenme": 8121, "m\u0131zdan": 8122, "\u2581Den": 8123, "\u2581etmeliyim": 8124, "\u2581seri": 8125, "\u2581Anla": 8126, "\u2581Elinde": 8127, "\u2581ba\u011f\u0131ms\u0131z": 8128, "\u2581Sigara": 8129, "\u2581d\u00f6nm\u00fc\u015f": 8130, "\u2581response": 8131, "she": 8132, "\u2581\u00dcstelik": 8133, "\u2581lap": 8134, "\u2581series": 8135, "\u2581k\u0131ld\u0131": 8136, "\u2581mighty": 8137, "\u2581debt": 8138, "\u2581Kazan": 8139, "\u2581status": 8140, "c\u00fc": 8141, "\u2581joined": 8142, "\u2581punish": 8143, "\u2581pissed": 8144, "\u2581umurunda": 8145, "\u2581anlamak": 8146, "\u2581Hedef": 8147, "\u2581sand": 8148, "a\u011fa": 8149, "\u2581yapt\u0131lar": 8150, "hole": 8151, "liler": 8152, "\u2581istemezsin": 8153, "\u2581Almost": 8154, "\u2581Bank": 8155, "\u2581GO": 8156, "\u2581Wolf": 8157, "\u2581earned": 8158, "\u2581cihaz\u0131": 8159, "\u2581forest": 8160, "\u2581Siyah": 8161, "kun": 8162, "Pa": 8163, "\u2581ALL": 8164, "\u2581400": 8165, "\u2581aramaya": 8166, "\u2581a\u015fa\u011f\u0131da": 8167, "\u2581d\u00fc\u015fer": 8168, "\u2581usta": 8169, "\u2581Memur": 8170, "\u2581pat": 8171, "\u011fini": 8172, "\u2581\u015fans\u0131m": 8173, "\u2581dahaki": 8174, "\u2581curious": 8175, "\u2581k\u00e2fi": 8176, "\u0131rken": 8177, "\u2581euro": 8178, "\u2581Kel": 8179, "\u2581Jonathan": 8180, "\u2581y\u0131ld\u0131z\u0131": 8181, "\u2581kom\u015fu": 8182, "\u2581offering": 8183, "ria": 8184, "\u2581heyecanl\u0131": 8185, "Let": 8186, "\u2581tall": 8187, "\u2581\u015eehir": 8188, "\u2581Penny": 8189, "\u2581tank": 8190, "fir": 8191, "\u2581alkol": 8192, "\u2581var\u0131m": 8193, "\u2581Mavi": 8194, "\u2581Leonard": 8195, "\u2581verdi\u011fin": 8196, "\u2581slave": 8197, "\u2581utan\u00e7": 8198, "\u2581\u00e7ocu\u011fum": 8199, "\u2581okudum": 8200, "\u2581saati": 8201, "\u2581yaparak": 8202, "\u2581Gentlemen": 8203, "\u2581version": 8204, "\u2581y\u00f6n\u00fcnde": 8205, "\u2581Stefan": 8206, "\u2581Yere": 8207, "\u2581hasar": 8208, "\u2581veri": 8209, "Onu": 8210, "ities": 8211, "\u2581Mon": 8212, "win": 8213, "\u2581a\u015fa\u011f\u0131ya": 8214, "\u2581ekmek": 8215, "\u2581s\u0131rf": 8216, "oloji": 8217, "\u2581Bay\u0131m": 8218, "\u2581aktar": 8219, "\u2581web": 8220, "\u2581merkezinde": 8221, "\u2581extremely": 8222, "\u2581hunt": 8223, "\u2581yaratma": 8224, "\u2581Gaz": 8225, "\u2581gelene": 8226, "\u2581shown": 8227, "\u2581y\u00f6nelik": 8228, "\u2581gideyim": 8229, "\u2581anlatmak": 8230, "\u2581zaman\u0131m": 8231, "\u2581zaman\u0131m\u0131z": 8232, "\u2581adams\u0131n": 8233, "\u2581Fel": 8234, "\u25812006": 8235, "\u2581Anl\u0131yor": 8236, "lar\u0131n\u0131z\u0131n": 8237, "\u2581sa\u011fol": 8238, "\u2581g\u00f6sterece\u011fim": 8239, "\u2581ihtimal": 8240, "fo": 8241, "\u2581mesafe": 8242, "\u2581vampir": 8243, "\u2581\u0130stersen": 8244, "\u2581150": 8245, "\u2581kum": 8246, "\u2581Herkese": 8247, "\u2581connected": 8248, "\u2581kamp": 8249, "his": 8250, "\u2581Harold": 8251, "\u2581K\u00f6pek": 8252, "\u2581Sheriff": 8253, "\u2581joint": 8254, "\u2581recent": 8255, "\u2581sayfa": 8256, "\u2581toz": 8257, "\u2581Sonu\u00e7": 8258, "\u2581rush": 8259, "\u2581carefully": 8260, "\u2581kar\u015f\u0131l\u0131\u011f\u0131nda": 8261, "\u2581officers": 8262, "elli": 8263, "\u2581Williams": 8264, "\u2581east": 8265, "\u2581s\u0131f\u0131r": 8266, "Da": 8267, "\u2581learning": 8268, "\u2581G\u00fcn\u00fc": 8269, "\u2581Pay": 8270, "\u2581television": 8271, "\u2581\u00fccret": 8272, "\u2581option": 8273, "\u2581Kula\u011fa": 8274, "\u2581entered": 8275, "\u2581answered": 8276, "\u2581kadeh": 8277, "\u2581mistakes": 8278, "from": 8279, "\u2581WAS": 8280, "\u2581izliyor": 8281, "\u2581d\u00f6nem": 8282, "\u2581\u00fclkede": 8283, "\u2581millions": 8284, "miyoruz": 8285, "\u2581Start": 8286, "\u2581Ulusal": 8287, "\u2581failure": 8288, "\u2581gitmeliyiz": 8289, "\u2581Central": 8290, "\u2581i\u00e7ecek": 8291, "\u2581checking": 8292, "\u2581s\u0131n\u0131fta": 8293, "\u2581de\u011fi\u015fiklik": 8294, "\u2581Council": 8295, "\u2581etmekten": 8296, "set": 8297, "\u2581Sev": 8298, "\u2581\u0130\u00e7eride": 8299, "ington": 8300, "\u2581gizlice": 8301, "\u2581zero": 8302, "\u2581pot": 8303, "ulder": 8304, "\u2581Annemin": 8305, "\u2581Aunt": 8306, "\u25812:": 8307, "\u2581Island": 8308, "\u2581vermez": 8309, "\u2581\u00e7al\u0131\u015f\u0131r": 8310, "\u2581Cumartesi": 8311, "60": 8312, "\u2581yetenekli": 8313, "\u00e1": 8314, "\u2581\u00e7ete": 8315, "\u2581Each": 8316, "\u2581tan\u0131m\u0131yorum": 8317, "\u2581Read": 8318, "cca": 8319, "mazlar": 8320, "\u2581Union": 8321, "**": 8322, "\u2581Riley": 8323, "\u2581Thought": 8324, "\u2581Hit": 8325, "\u2581Shu": 8326, "\u2581plate": 8327, "\u2581\u00e7evirir": 8328, "\u2581di\u011ferleri": 8329, "\u2581ju": 8330, "\u2581Gayet": 8331, "\u2581olmal\u0131y\u0131z": 8332, "\u2581giriyor": 8333, "\u2581tahliye": 8334, "\u2581\u0131": 8335, "\u2581Gro": 8336, "\u2581g\u00f6zleri": 8337, "mle": 8338, "\u2581Eat": 8339, "\u2581breathing": 8340, "\u2581Mad": 8341, "\u2581mama": 8342, "\u2581scary": 8343, "ata": 8344, "\u2581Monica": 8345, "\u2581y\u00f6nlendir": 8346, "\u2581gelmeye": 8347, "\u2581g\u00f6t\u00fcr\u00fcr": 8348, "\u2581g\u00fcne": 8349, "\u2581g\u00fcvenilir": 8350, "\u2581Bea": 8351, "\u2581Kolay": 8352, "\u2581priest": 8353, "\u258136": 8354, "\u2581laws": 8355, "\u2581trash": 8356, "\u2581bulu\u015f": 8357, "\u2581sokma": 8358, "\u2581Chu": 8359, "\u2581Han\u0131mefendi": 8360, "\u2581Meg": 8361, "\u2581yellow": 8362, "rr": 8363, "\u2581poison": 8364, "\u2581Kong": 8365, "\u2581oyuncak": 8366, "\u2581foto\u011fraf\u0131": 8367, "Ta": 8368, "\u2581severe": 8369, "\u2581ce": 8370, "\u2581puan": 8371, "\u2581sa\u011flama": 8372, "ough": 8373, "\u2581M\u00fcd\u00fcr": 8374, "\u2581m\u00fcd\u00fcr\u00fc": 8375, "\u2581k\u0131s": 8376, "\u2581e\u015fittir": 8377, "\u2581Texas": 8378, "\u2581Anybody": 8379, "\u2581Army": 8380, "\u2581s\u00f6yleyemem": 8381, "\u2581\u0130ster": 8382, "\u2581dolarl\u0131k": 8383, "vic": 8384, "\u2581etkili": 8385, "\u2581Sign": 8386, "\u2581Zu": 8387, "\u2581birbirimize": 8388, "\u2581pills": 8389, "\u2581manifest": 8390, "\u2581trap": 8391, "\u2581t\u0131p": 8392, "\u2581vurma": 8393, "Ho": 8394, "\u2581managed": 8395, "\u2581olmad\u0131\u011f\u0131na": 8396, "\u2581associate": 8397, "\u2581services": 8398, "\u2581arabas\u0131": 8399, "melisiniz": 8400, "\u2581Therefore": 8401, "\u2581sexy": 8402, "\u2581k\u0131zlar\u0131": 8403, "\u2581hated": 8404, "\u2581Genel": 8405, "\u2581haf\u0131za": 8406, "\u2581Tara": 8407, "\u2581Tuhaf": 8408, "\u2581tests": 8409, "\u2581d\u00f6n\u00fcn": 8410, "\u2581a\u015fk\u0131m": 8411, "Siz": 8412, "\u2581Logan": 8413, "\u2581gitmedi": 8414, "\u2581Kamera": 8415, "\u2581seviyorsun": 8416, "\u2581ma\u00e7\u0131": 8417, "\u2581religious": 8418, "\u2581Duke": 8419, "\u2581Second": 8420, "\u2581g\u00f6\u011f\u00fcs": 8421, "\u2581repeat": 8422, "\u2581Keith": 8423, "\u2581angle": 8424, "\u2581etkileyici": 8425, "\u2581iken": 8426, "art": 8427, "hen": 8428, "\u2581k\u00f6t\u00fcs\u00fc": 8429, "\u2581\u0130lgin\u00e7": 8430, "\u2581hi\u00e7biri": 8431, "\u2581faydas\u0131": 8432, "\u2581hastal\u0131\u011f\u0131": 8433, "\u2581popular": 8434, "\u2581m\u00fcsaade": 8435, "\u2581d\u00fc\u015f\u00fcnm\u00fcyor": 8436, "\u2581tecr\u00fcbe": 8437, "ric": 8438, "\u2581Ugh": 8439, "\u2581Elimizde": 8440, "\u2581Wendy": 8441, "\u2581systems": 8442, "py": 8443, "\u2581Polisi": 8444, "\u2581vermedi": 8445, "\u2581Thursday": 8446, "\u2581\u00e7al\u0131\u015f\u0131rken": 8447, "\u0130\u015fte": 8448, "\u2581Hard": 8449, "\u2581Vol": 8450, "\u2581ibadet": 8451, "ato": 8452, "\u2581bekliyorsun": 8453, "\u2581d\u00fc\u015f\u00fcnd\u00fc\u011f\u00fcm": 8454, "\u2581sentence": 8455, "\u2581te\u015fvik": 8456, "\u2581kalbi": 8457, "\u2581tarz": 8458, "\u2581Jill": 8459, "\u2581ba\u011f\u0131r": 8460, "\u2581d\u00fc\u015fman\u0131": 8461, "cor": 8462, "uld": 8463, "\u2581mor": 8464, "rma": 8465, "\u2581Kimsin": 8466, "\u2581kad\u0131nlar\u0131n": 8467, "\u2581murderer": 8468, "\u2581whore": 8469, "\u2581button": 8470, "\u2581Bomba": 8471, "\u0131n\u0131z\u0131": 8472, "\u2581Tren": 8473, "\u2581Adrian": 8474, "\u2581b\u00f6lgede": 8475, "\u2581tutan": 8476, "ston": 8477, "\u2581Rusya": 8478, "\u2581derim": 8479, "\u2581dini": 8480, "EN": 8481, "\u2581treated": 8482, "af": 8483, "ably": 8484, "tay": 8485, "\u2581\u00e7\u0131karsa": 8486, "\u2581Arkada\u015f\u0131n": 8487, "\u2581spending": 8488, "\u25812009": 8489, "likten": 8490, "\u2581T\u00fcrk": 8491, "\u2581durumunda": 8492, "\u2581custody": 8493, "\u2581do\u011frudan": 8494, "\u2581param": 8495, "\u2581apparently": 8496, "\u2581chocolate": 8497, "\u2581du\u015f": 8498, "\u2581Simpson": 8499, "\u2581hack": 8500, "\u25815,": 8501, "\u2581olmam\u0131z": 8502, "\u2581H\u0131zl\u0131": 8503, "\u2581Harris": 8504, "\u2581gitmemiz": 8505, "\u2581\u00d6\u011fle": 8506, "\u2581Farkl\u0131": 8507, "\u2581couch": 8508, "\u2581Fair": 8509, "\u2581cezaland\u0131r": 8510, "\u2581de\u011feri": 8511, "\u2581Merkezi": 8512, "\u2581sonu\u00e7lar\u0131": 8513, "\u2581perform": 8514, "\u2581duran": 8515, "\u2581ip": 8516, "\u2581kokusu": 8517, "m\u00fc\u015ft\u00fc": 8518, "\u2581Gidin": 8519, "\u2581Tina": 8520, "\u2581duvar": 8521, "\u2581insana": 8522, "\u2581S\u0131k\u0131": 8523, "\u2581glasses": 8524, "\u2581Francisco": 8525, "yin": 8526, "\u2581Banka": 8527, "\u2581attorney": 8528, "ix": 8529, "\u2581konu\u015facak": 8530, "\u2581shots": 8531, "rie": 8532, "\u2581Bonnie": 8533, "Bunu": 8534, "\u2581HAVE": 8535, "\u2581Kris": 8536, "man\u0131": 8537, "\u2581Might": 8538, "\u2581Milo": 8539, "mayacaks\u0131n": 8540, "\u2581de\u011fi\u015ftirdi": 8541, "\u2581g\u00f6t\u00fcrecek": 8542, "\u2581a\u00e7ar": 8543, "\u2581at\u0131yor": 8544, "\u2581reklam": 8545, "\u2581dola\u015f": 8546, "\u2581Sh": 8547, "\u2581competition": 8548, "Q": 8549, "\u2581Ohh": 8550, "\u2581bahsediyorum": 8551, "\u2581Spencer": 8552, "eh": 8553, "\u2581de\u011fi\u015ftirmek": 8554, "\u2581koyay\u0131m": 8555, "\u2581iron": 8556, "\u2581konu\u015fmam\u0131z": 8557, "09": 8558, "\u2581convince": 8559, "\u2581\u00f6l\u00fcyor": 8560, "\u2581Dear": 8561, "\u2581a\u015f\u0131": 8562, "\u2581woke": 8563, "\u2581Yan\u0131nda": 8564, "\u2581host": 8565, "\u2581confirm": 8566, "\u2581ma\u00e7": 8567, "\u2581\u00e7al\u0131yor": 8568, "\u2581Travis": 8569, "\u2581vaktim": 8570, "\u2581\u0130mdat": 8571, "\u2581unuttun": 8572, "\u25812010": 8573, "rim": 8574, "\u2581Lake": 8575, "nge": 8576, "\u2581verip": 8577, "\u2581blew": 8578, "\u2581geliyorsun": 8579, "\u2581pas": 8580, "\u2581Being": 8581, "\u2581peynir": 8582, "\u2581borrow": 8583, "\u2581uyma": 8584, "\u2581kimlik": 8585, "\u2581y\u00fcz\u00fcne": 8586, "\u2581Eyl\u00fcl": 8587, "\u2581Buralarda": 8588, "\u2581July": 8589, "\u2581zeka": 8590, "\u2581Beck": 8591, "\u2581Cra": 8592, "\u2581earn": 8593, "\u2581yapamaz": 8594, "\u2581Boss": 8595, "\u2581k\u0131\u00e7\u0131n\u0131": 8596, "\u2581\u015feklinde": 8597, "Hi": 8598, "lyn": 8599, "\u2581Bla": 8600, "\u2581Lor": 8601, "\u2581Ivan": 8602, "\u2581Cy": 8603, "\u2581mis": 8604, "\u2581etmen": 8605, "\u2581Geliyor": 8606, "\u2581lideri": 8607, "hoo": 8608, "\u2581bekleyen": 8609, "\u2581g\u00f6nderme": 8610, "\u2581soruyor": 8611, "\u2581k\u00f6pe\u011fi": 8612, "ore": 8613, "\u2581\u0130\u011fren\u00e7": 8614, "\u2581Hak": 8615, "\u2581bal\u0131\u011f\u0131": 8616, "\u2581yan\u0131t": 8617, "mad\u0131n": 8618, "\u2581M\u00fczik": 8619, "\u2581birazc\u0131k": 8620, "\u2581miracle": 8621, "\u2581romantik": 8622, "Man": 8623, "di\u011finiz": 8624, "\u2581ashamed": 8625, "\u2581katlan": 8626, "\u2581etc": 8627, "\u2581bulmam": 8628, "\u2581\u0130nsanlar\u0131": 8629, "\u2581y\u0131l\u0131": 8630, "\u2581edilir": 8631, "\u25819.": 8632, "\u2581bileyim": 8633, "\u2581Pavlus": 8634, "\u2581kemik": 8635, "\u2581s\u0131z": 8636, "\u2581wishes": 8637, "\u2581yukar\u0131da": 8638, "\u2581Connor": 8639, "\u2581guests": 8640, "\u2581Ain": 8641, "yelim": 8642, "\u2581Hata": 8643, "ology": 8644, "\u2581Lauren": 8645, "\u2581ruhu": 8646, "\u2581yapm\u0131yor": 8647, "\u2581\u00e7\u00f6k": 8648, "\u2581\u00f6ld\u00fc\u011f\u00fc": 8649, "\u2581deney": 8650, "ulmu\u015f": 8651, "\u25812004": 8652, "\u2581dinler": 8653, "\u2581t\u00fcr\u00fc": 8654, "\u2581yard\u0131mc\u0131s\u0131": 8655, "town": 8656, "work": 8657, "\u2581bye": 8658, "\u2581\u2022": 8659, "\u2581belge": 8660, "\u2581bozuk": 8661, "\u2581geli\u015ftir": 8662, "\u2581yandan": 8663, "\u2581ya\u015f\u0131ndayken": 8664, "\u2581Ava": 8665, "\u2581lake": 8666, "\u2581financial": 8667, "\u2581Either": 8668, "SA": 8669, "\u2581Lin": 8670, "\u2581parking": 8671, "\u2581India": 8672, "\u2581Dead": 8673, "\u2581biriyim": 8674, "\u2581Hafta": 8675, "\u2581comfort": 8676, "\u2581d\u00fc\u015fm\u00fc\u015f": 8677, "\u2581konser": 8678, "\u2581ri": 8679, "\u2581desires": 8680, "\u2581kibar": 8681, "\u2581Al\u0131n": 8682, "\u2581Ek": 8683, "\u2581granted": 8684, "\u2581produce": 8685, "\u2581toast": 8686, "\u2581yatma": 8687, "\u2581Can\u0131m": 8688, "\u2581refuse": 8689, "\u2581population": 8690, "\u2581\u015eerefe": 8691, "\u2581Holly": 8692, "\u2581leading": 8693, "this": 8694, "\u2581Lincoln": 8695, "medi": 8696, "\u2581fed": 8697, "AT": 8698, "\u2581Kedi": 8699, "\u2581Fena": 8700, "\u2581haval\u0131": 8701, "\u2581pulling": 8702, "\u2581ba\u011f\u0131": 8703, "\u2581yemi\u015f": 8704, "\u2581Gitmek": 8705, "\u2581fakir": 8706, "\u2581Dinleyin": 8707, "\u2581May\u0131s": 8708, "\u2581\u00f6p": 8709, "\u2581defend": 8710, "\u2581etmesini": 8711, "\u2581Tatl\u0131": 8712, "\u2581cameras": 8713, "\u2581detail": 8714, "\u2581sonras\u0131": 8715, "\u2581messages": 8716, "\u2581shopping": 8717, "stro": 8718, "\u2581ID": 8719, "\u2581capital": 8720, "\u2581d\u00fc\u015f\u00fcn\u00fcyoruz": 8721, "\u2581anlamda": 8722, "\u2581badly": 8723, "\u2581cap": 8724, "\u2581object": 8725, "\u2581durur": 8726, "\u2581Ordu": 8727, "\u2581Mitch": 8728, "\u2581fikrini": 8729, "\u2581hazine": 8730, "\u2581Korkma": 8731, "\u2581tesis": 8732, "unun": 8733, "\u2581geceyi": 8734, "\u2581ba\u015flayacak": 8735, "\u2581uzakla\u015ft\u0131r": 8736, "clock": 8737, "\u2581bina": 8738, "\u2581g\u00f6sterecek": 8739, "\u2581sorumluluk": 8740, "\u2581Nas\u0131ls\u0131n\u0131z": 8741, "\u2581\u00f6yleydi": 8742, "cing": 8743, "\u2581Kar\u0131n": 8744, "\u2581kendinizi": 8745, "\u2581Lang": 8746, "\u2581setting": 8747, "\u2581\u00c7ay": 8748, "\u2581Blake": 8749, "\u2581believing": 8750, "\u2581\u00f6n\u00fcm\u00fczde": 8751, "mu\u015fsun": 8752, "rich": 8753, "\u2581e\u015fyalar\u0131": 8754, "\u2581Allison": 8755, "\u2581gere\u011fi": 8756, "\u2581degrees": 8757, "\u2581s\u0131\u00e7": 8758, "kka": 8759, "\u2581Bud": 8760, "\u2581tuttu": 8761, "stone": 8762, "\u2581i\u00e7i": 8763, "\u2581Sem": 8764, "\u2581brand": 8765, "\u2581d\u00fc\u015f\u00fcr": 8766, "\u2581kurulu": 8767, "lerindeki": 8768, "\u2581environment": 8769, "\u2581kar\u015f\u0131ya": 8770, "\u2581Temmuz": 8771, "\u2581sorum": 8772, "emeyecek": 8773, "\u2581Abi": 8774, "\u2581Alt": 8775, "\u2581melek": 8776, "\u2581evim": 8777, "\u2581cells": 8778, "\u2581k\u0131s\u0131m": 8779, "\u2581states": 8780, "\u2581ekonomi": 8781, "SE": 8782, "\u2581o\u011fullar\u0131": 8783, "rit": 8784, "\u2581hayat\u0131nda": 8785, "\u2581ekle": 8786, "\u2581becer": 8787, "y\u00fcz": 8788, "\u2581Finally": 8789, "\u2581switch": 8790, "\u2581Karde\u015fin": 8791, "\u2581kalabal\u0131k": 8792, "\u2581babe": 8793, "\u2581creature": 8794, "\u2581Certainly": 8795, "\u2581g\u00f6rm\u00fc\u015ft\u00fcm": 8796, "\u2581aras\u0131na": 8797, "\u2581trace": 8798, "Le": 8799, "ito": 8800, "\u2581andan": 8801, "\u2581ge\u00e7mek": 8802, "\u2581s\u0131rt": 8803, "ebilmek": 8804, "\u2581g\u00f6rd\u00fc\u011f\u00fcme": 8805, "\u2581Anlamad\u0131m": 8806, "\u2581actual": 8807, "\u2581giyme": 8808, "\u2581sendin": 8809, "\u2581bilet": 8810, "-4": 8811, "ymu\u015f": 8812, "just": 8813, "\u2581Shoot": 8814, "\u2581Sur": 8815, "\u2581sharp": 8816, "day\u0131z": 8817, "\u2581kalmayacak": 8818, "\u2581koyar": 8819, "\u2581mektubu": 8820, "\u2581\u015furaya": 8821, "lemek": 8822, "\u2581Spa": 8823, "\u2581disappear": 8824, "ugh": 8825, "\u2581ayd\u0131r": 8826, "\u2581anahtar": 8827, "\u2581d\u00fc\u015f\u00fcnmeye": 8828, "\u2581Ralph": 8829, "\u2581Boo": 8830, "\u2581Internet": 8831, "\u2581h\u0131zla": 8832, "\u2581Turkish": 8833, "\u2581s\u00f6z\u00fcn\u00fc": 8834, "\u2581decisions": 8835, "\u2581s\u00fcr\u00fckle": 8836, "\u2581\u015fekil": 8837, "\u2581west": 8838, "\u2581Spanish": 8839, "\u2581wherever": 8840, "\u2581Kendilerine": 8841, "\u2581slip": 8842, "\u2581at\u0131n": 8843, "Bo": 8844, "\u2581g\u00fcn\u00fcn\u00fc": 8845, "klar\u0131n\u0131": 8846, "\u2581SE": 8847, "\u2581olmam\u0131": 8848, "\u2581Marco": 8849, "\u2581Special": 8850, "br": 8851, "\u2581Merkez": 8852, "\u2581egg": 8853, "\u2581Cro": 8854, "\u2581\u00e7ocu\u011fa": 8855, "\u2581d\u00f6nd\u00fcm": 8856, "\u2581sevdi\u011fin": 8857, "Come": 8858, "know": 8859, "\u0131l\u0131p": 8860, "\u2581bra": 8861, "\u2581g\u00f6zlem": 8862, "\u2581kad\u0131nlar\u0131": 8863, "\u2581district": 8864, "\u2581rengi": 8865, "\u2581respond": 8866, "\u2581DON": 8867, "\u2581guarantee": 8868, "\u2581hunting": 8869, "\u2581passing": 8870, "\u2581slowly": 8871, "bor": 8872, "\u2581Korku": 8873, "\u2581Mason": 8874, "\u2581Sammy": 8875, "\u2581Seks": 8876, "uff": 8877, "\u2581getirecek": 8878, "\u2581oynuyor": 8879, "\u2581Jules": 8880, "\u2581explanation": 8881, "\u2581garage": 8882, "\u2581birbirlerine": 8883, "\u2581olabiliriz": 8884, "\u2581title": 8885, "le\u015f": 8886, "\u2581sonu\u00e7ta": 8887, "\u2581Babas\u0131": 8888, "\u2581Dana": 8889, "\u2581performance": 8890, "\u2581sandvi\u00e7": 8891, "\u2581trans": 8892, "\u2581hayran": 8893, "\u2581yar\u0131yor": 8894, "ovic": 8895, "\u2581verdi\u011fini": 8896, "An": 8897, "gon": 8898, "rac": 8899, "\u2581kusursuz": 8900, "\u2581grandfather": 8901, "\u2581rejected": 8902, "\u2581yar\u0131s\u0131n\u0131": 8903, "\u2581attitude": 8904, "\u2581Nine": 8905, "\u2581highly": 8906, "\u2581takdirde": 8907, "\u2581Maalesef": 8908, "\u2581NOT": 8909, "\u2581\u00c7al\u0131\u015fma": 8910, "\u2581Anthony": 8911, "\u2581Dale": 8912, "\u2581ald\u0131lar": 8913, "\u2581olabilecek": 8914, "\u2581stealing": 8915, "\u2581wicked": 8916, "\u25812005": 8917, "\u2581Kitty": 8918, "\u2581Club": 8919, "\u0131lma": 8920, "\u2581yorgun": 8921, "\u2581bel": 8922, "\u2581koydu": 8923, "\u2581\u00f6yledir": 8924, "\u011f\u0131": 8925, "\u2581d\u00fc\u015fen": 8926, "\u2581d\u00fc\u015f\u00fcn\u00fcr": 8927, "\u2581gittik": 8928, "\u2581G\u00f6rev": 8929, "\u2581Paradise": 8930, "\u2581Savunma": 8931, "\u2581anlamad\u0131m": 8932, "\u2581ba\u015flamak": 8933, "Co": 8934, "\u2581Unfortunately": 8935, "\u2581y\u00f6netim": 8936, "\u2581demir": 8937, "\u2581Nisan": 8938, "\u2581El\u00e7i": 8939, "\u2581kav": 8940, "\u2581Samuel": 8941, "\u2581fourth": 8942, "i\u00e7": 8943, "\u2581alt\u0131ndan": 8944, "\u2581artt\u0131r": 8945, "iye": 8946, "deyiz": 8947, "\u2581Wise": 8948, "\u2581groups": 8949, "\u2581Feel": 8950, "\u2581bilme": 8951, "\u2581g\u00f6r\u00fcnme": 8952, "\u2581kesme": 8953, "\u2581Bos": 8954, "\u2581Kirk": 8955, "\u2581bags": 8956, "\u2581olamazs\u0131n": 8957, "\u2581pee": 8958, "oc": 8959, "\u2581kamyon": 8960, "\u2581ay\u0131nda": 8961, "\u2581\u015fah": 8962, "\u2581Phoebe": 8963, "\u2581sanat\u00e7\u0131": 8964, "\u2581Barney": 8965, "\u2581D\u00fc\u015fman": 8966, "\u2581audience": 8967, "\u2581equipment": 8968, "\u2581gelece\u011fi": 8969, "\u2581anlam": 8970, "\u2581\u0130ncil": 8971, "\u2581g\u00fcc\u00fcn\u00fc": 8972, "\u2581peri": 8973, "\u2581g\u00f6r\u00fcrs\u00fcn": 8974, "ledi": 8975, "For": 8976, "espite": 8977, "\u2581Seth": 8978, "\u2581kopar": 8979, "\u2581do\u011fu": 8980, "\u2581etmeden": 8981, "\u2581zaman\u0131n": 8982, "nizde": 8983, "\u2581kurma": 8984, "\u2581sevdi\u011fi": 8985, "\u2581zenci": 8986, "d\u0131\u011f\u0131mda": 8987, "lanmas\u0131": 8988, "\u2581Gray": 8989, "\u2581Italian": 8990, "\u2581ama\u00e7": 8991, "\u2581hundreds": 8992, "\u2581istiyorsan\u0131z": 8993, "\u2581polise": 8994, "\u2581Emredersiniz": 8995, "\u2581uy": 8996, "\u2581thief": 8997, "\u2581Otherwise": 8998, "\u2581\u00e7evirdi": 8999, "\u2581kova": 9000, "\u2581imzala": 9001, "\u2581Saray": 9002, "\u2581conditions": 9003, "\u2581Buraday\u0131m": 9004, "\u2581do\u011fa": 9005, "\u2581Fla": 9006, "\u2581rare": 9007, "\u2581Careful": 9008, "\u2581ho\u015flan\u0131yor": 9009, "\u2581g\u00f6recek": 9010, "\u2581\u00e7al\u0131\u015ft\u0131\u011f\u0131m": 9011, "\u2581grubun": 9012, "\u2581g\u00f6relim": 9013, "sayd\u0131m": 9014, "\u2581armed": 9015, "\u2581minds": 9016, "\u2581mat": 9017, "mal": 9018, "\u2581Quick": 9019, "\u0131ld\u0131\u011f\u0131": 9020, "\u2581Ker": 9021, "\u2581courage": 9022, "\u2581disk": 9023, "\u2581Mind": 9024, "\u2581tehlikede": 9025, "LY": 9026, "\u2581Herhalde": 9027, "\u2581dirilt": 9028, "ar\u0131m": 9029, "cek": 9030, "\u2581sava\u015f\u0131n": 9031, "\u2581Saul": 9032, "\u2581throwing": 9033, "ar\u0131": 9034, "\u2581D\u00f6n": 9035, "\u2581tan\u0131yorsun": 9036, "\u2581\u00fcz\u00fcc\u00fc": 9037, "\u2581toplam": 9038, "\u2581Lay": 9039, "\u2581literally": 9040, "\u2581Previously": 9041, "\u2581sevme": 9042, "\u2581Med": 9043, "\u2581writer": 9044, "\u2581Prenses": 9045, "Get": 9046, "\u2581fallen": 9047, "\u2581sigorta": 9048, "\u2581tied": 9049, "\u2581leaders": 9050, "\u2581useful": 9051, "\u2581Isaac": 9052, "\u2581Stra": 9053, "\u2581Fan": 9054, "Kim": 9055, "\u2581RAB": 9056, "\u2581desperate": 9057, "\u2581G\u00fc\u00e7l\u00fc": 9058, "\u2581ate\u015fe": 9059, "\u2581polisler": 9060, "\u2581etmedim": 9061, "\u2581bildi\u011fini": 9062, "\u2581g\u00f6z\u00fcn\u00fc": 9063, "ox": 9064, "pin": 9065, "\u2581bunlara": 9066, "\u2581Fra": 9067, "\u2581Work": 9068, "\u2581professor": 9069, "\u2581mirror": 9070, "\u2581skills": 9071, "\u2581\u00f6lme": 9072, "\u2581g\u00f6rebiliyorum": 9073, "\u2581kapatma": 9074, "\u2581Death": 9075, "\u2581Holmes": 9076, "\u2581smoking": 9077, "\u2581\u00e7ak": 9078, "\u2581d\u00fc\u015f\u00fcnd\u00fc\u011f\u00fcn": 9079, "\u2581Roll": 9080, "\u2581haberim": 9081, "\u2581bulmam\u0131z": 9082, "\u2581\u00e7\u0131kmaz": 9083, "\u2581Haziran": 9084, "\u2581\u00f6nde": 9085, "\u2581authorities": 9086, "\u2581ilgilendirmez": 9087, "mad\u0131": 9088, "\u25816,": 9089, "\u2581wood": 9090, "\u2581y\u0131lan": 9091, "\u2581\u00e7\u0131kt\u0131m": 9092, "\u2581pet": 9093, "\u2581sinyal": 9094, "Our": 9095, "\u2581Indian": 9096, "del": 9097, "\u2581se\u00e7ti": 9098, "\u2581vehicle": 9099, "\u2581Ta\u015f": 9100, "\u2581tat": 9101, "Benim": 9102, "\u2581\u015fa": 9103, "\u2581incit": 9104, "\u2581\u00f6nceydi": 9105, "\u2581mon": 9106, "\u2581trigger": 9107, "\u2581uzan": 9108, "\u2581Anla\u015ft\u0131k": 9109, "oma": 9110, "\u2581tail": 9111, "\u2581unjust": 9112, "\u2581Motor": 9113, "mezdim": 9114, "\u2581\u00e7\u0131kmad\u0131": 9115, "\u2581tahta": 9116, "\u2581Ger\u00e7e\u011fi": 9117, "\u2581\u00e7ocuklara": 9118, "\u2581Komiser": 9119, "\u2581although": 9120, "\u2581hukuk": 9121, "\u2581yurt": 9122, "\u2581meydan": 9123, "\u2581grandmother": 9124, "\u2581\u00f6ld\u00fcr\u00fcyor": 9125, "\u2581Kan\u0131t": 9126, "\u2581evlenmek": 9127, "\u2581forbidden": 9128, "\u2581odaya": 9129, "\u2581Nazi": 9130, "\u015fey": 9131, "\u2581spy": 9132, "\u2581clever": 9133, "ative": 9134, "l\u00fc\u011f\u00fc": 9135, "Are": 9136, "\u2581aray\u0131n": 9137, "\u2581\u00e7\u0131kard\u0131n": 9138, "meli": 9139, "\u2581$1": 9140, "sse": 9141, "\u2581Marc": 9142, "\u2581Spe": 9143, "leniyor": 9144, "leyip": 9145, "\u2581melekler": 9146, "\u2581mystery": 9147, "\u2581rezil": 9148, "\u2581Bizden": 9149, "\u2581Quinn": 9150,
[...]
